{
  "vocab": {
    "<PAD>": 0,
    "<SOS>": 1,
    "<EOS>": 2,
    "<UNK>": 3,
    "<SEP>": 4,
    "<CLS>": 5,
    "<MASK>": 6,
    " ": 7,
    "!": 8,
    "\"": 9,
    "#": 10,
    "$": 11,
    "%": 12,
    "&": 13,
    "'": 14,
    "(": 15,
    ")": 16,
    "*": 17,
    "+": 18,
    ",": 19,
    "-": 20,
    ".": 21,
    "/": 22,
    "0": 23,
    "1": 24,
    "2": 25,
    "3": 26,
    "4": 27,
    "5": 28,
    "6": 29,
    "7": 30,
    "8": 31,
    "9": 32,
    ":": 33,
    ";": 34,
    "<": 35,
    "=": 36,
    ">": 37,
    "?": 38,
    "@": 39,
    "[": 40,
    "\\": 41,
    "]": 42,
    "^": 43,
    "_": 44,
    "`": 45,
    "a": 46,
    "b": 47,
    "c": 48,
    "d": 49,
    "e": 50,
    "f": 51,
    "g": 52,
    "h": 53,
    "i": 54,
    "j": 55,
    "k": 56,
    "l": 57,
    "m": 58,
    "n": 59,
    "o": 60,
    "p": 61,
    "q": 62,
    "r": 63,
    "s": 64,
    "t": 65,
    "u": 66,
    "v": 67,
    "w": 68,
    "x": 69,
    "y": 70,
    "z": 71,
    "{": 72,
    "|": 73,
    "}": 74,
    "~": 75,
    "in": 76,
    " t": 77,
    " a": 78,
    " o": 79,
    "he": 80,
    " s": 81,
    "er": 82,
    " the": 83,
    "re": 84,
    "on": 85,
    " of": 86,
    " m": 87,
    " p": 88,
    " b": 89,
    "ti": 90,
    "al": 91,
    " c": 92,
    "en": 93,
    "ed": 94,
    " in": 95,
    " (": 96,
    " an": 97,
    "or": 98,
    "ing": 99,
    " w": 100,
    "an": 101,
    " or": 102,
    "tion": 103,
    " f": 104,
    "is": 105,
    " d": 106,
    "at": 107,
    "es": 108,
    " be": 109,
    " and": 110,
    "ec": 111,
    "ro": 112,
    " e": 113,
    "it": 114,
    " re": 115,
    " sh": 116,
    " to": 117,
    " h": 118,
    "ic": 119,
    "all": 120,
    "ar": 121,
    " su": 122,
    "ent": 123,
    " shall": 124,
    "ation": 125,
    " n": 126,
    " min": 127,
    " l": 128,
    " ,": 129,
    "ce": 130,
    "as": 131,
    "un": 132,
    "__": 133,
    " g": 134,
    " th": 135,
    " ;": 136,
    " ma": 137,
    "ers": 138,
    " for": 139,
    "ch": 140,
    "ul": 141,
    " /": 142,
    "pec": 143,
    " pro": 144,
    " no": 145,
    " any": 146,
    "lo": 147,
    " ex": 148,
    " by": 149,
    "et": 150,
    " 4": 151,
    "ver": 152,
    "id": 153,
    " as": 154,
    " con": 155,
    "ate": 156,
    "ve": 157,
    "ur": 158,
    "und": 159,
    " co": 160,
    "us": 161,
    " 1": 162,
    "ag": 163,
    "mp": 164,
    "if": 165,
    "le": 166,
    " such": 167,
    "her": 168,
    "ith": 169,
    "..": 170,
    "erson": 171,
    " person": 172,
    "spec": 173,
    "ment": 174,
    " mine": 175,
    "pp": 176,
    " is": 177,
    "ra": 178,
    "ut": 179,
    " with": 180,
    " )": 181,
    "ther": 182,
    "spect": 183,
    "il": 184,
    "am": 185,
    "st": 186,
    "____": 187,
    "qu": 188,
    " on": 189,
    " may": 190,
    " st": 191,
    " wor": 192,
    "ion": 193,
    " work": 194,
    " at": 195,
    " sub": 196,
    " other": 197,
    " wh": 198,
    "ly": 199,
    "ir": 200,
    " prov": 201,
    "ct": 202,
    "fic": 203,
    " that": 204,
    "under": 205,
    "ess": 206,
    " not": 207,
    " he": 208,
    "ii": 209,
    " reg": 210,
    " al": 211,
    " -": 212,
    " man": 213,
    "se": 214,
    "im": 215,
    " app": 216,
    " 2": 217,
    " under": 218,
    "res": 219,
    " en": 220,
    "ted": 221,
    "ase": 222,
    " ch": 223,
    "very": 224,
    " whe": 225,
    "ig": 226,
    "ter": 227,
    " every": 228,
    "ay": 229,
    "ble": 230,
    " pl": 231,
    " per": 232,
    " 3": 233,
    "de": 234,
    "ire": 235,
    "ulation": 236,
    " inspect": 237,
    "eral": 238,
    " le": 239,
    " there": 240,
    " manag": 241,
    "per": 242,
    " inspector": 243,
    "ance": 244,
    " r": 245,
    "ine": 246,
    " 7": 247,
    "ure": 248,
    " de": 249,
    "rom": 250,
    "ection": 251,
    " provid": 252,
    " bo": 253,
    "di": 254,
    "af": 255,
    " \"": 256,
    " whic": 257,
    "ding": 258,
    "ain": 259,
    " :": 260,
    " which": 261,
    " manager": 262,
    "ist": 263,
    " from": 264,
    " v": 265,
    "iv": 266,
    "ke": 267,
    "ol": 268,
    "low": 269,
    " provided": 270,
    " are": 271,
    " spec": 272,
    "um": 273,
    "able": 274,
    "ied": 275,
    "ore": 276,
    " mining": 277,
    " z": 278,
    "ans": 279,
    " cont": 280,
    " q": 281,
    " me": 282,
    "th": 283,
    " mineral": 284,
    "der": 285,
    " working": 286,
    "ect": 287,
    "art": 288,
    "ial": 289,
    " un": 290,
    " comp": 291,
    "ie": 292,
    "po": 293,
    " ro": 294,
    " ha": 295,
    "wn": 296,
    " if": 297,
    " where": 298,
    " it": 299,
    "cc": 300,
    " pre": 301,
    " us": 302,
    " +": 303,
    " than": 304,
    "________": 305,
    " specif": 306,
    " eng": 307,
    "pt": 308,
    "mit": 309,
    "age": 310,
    "ical": 311,
    "ace": 312,
    " case": 313,
    "ence": 314,
    "ge": 315,
    " all": 316,
    " go": 317,
    " po": 318,
    "ign": 319,
    "tions": 320,
    "ad": 321,
    "od": 322,
    " regulation": 323,
    " se": 324,
    " act": 325,
    " so": 326,
    "tific": 327,
    " met": 328,
    " persons": 329,
    "ated": 330,
    " cer": 331,
    "--": 332,
    "ief": 333,
    "....": 334,
    "int": 335,
    " i": 336,
    "ame": 337,
    "ary": 338,
    " engine": 339,
    " chief": 340,
    "om": 341,
    "ort": 342,
    " ag": 343,
    "ear": 344,
    "00": 345,
    "loy": 346,
    "entr": 347,
    " emp": 348,
    " below": 349,
    " section": 350,
    " sho": 351,
    "ision": 352,
    " employ": 353,
    " exp": 354,
    "ord": 355,
    "rit": 356,
    " mines": 357,
    "tic": 358,
    "ac": 359,
    "ric": 360,
    " order": 361,
    " pur": 362,
    "and": 363,
    "ant": 364,
    "ity": 365,
    "uc": 366,
    "ard": 367,
    "ations": 368,
    " exam": 369,
    " own": 370,
    " this": 371,
    "round": 372,
    " day": 373,
    " requ": 374,
    "ous": 375,
    " his": 376,
    " made": 377,
    " gover": 378,
    " govern": 379,
    " government": 380,
    " offic": 381,
    " part": 382,
    " writ": 383,
    "pe": 384,
    "ri": 385,
    " oper": 386,
    " certific": 387,
    " 5": 388,
    " y": 389,
    " purpo": 390,
    "11": 391,
    " tim": 392,
    "ination": 393,
    " rec": 394,
    " ab": 395,
    " exce": 396,
    " res": 397,
    "ast": 398,
    "ber": 399,
    " writing": 400,
    " has": 401,
    " x": 402,
    " lo": 403,
    "fer": 404,
    "enc": 405,
    "red": 406,
    "ater": 407,
    " rep": 408,
    " owner": 409,
    " aut": 410,
    " out": 411,
    "end": 412,
    " acc": 413,
    " certificate": 414,
    " sur": 415,
    " ext": 416,
    "for": 417,
    " require": 418,
    "hor": 419,
    " means": 420,
    "te": 421,
    "of": 422,
    " 6": 423,
    " af": 424,
    " rul": 425,
    " %": 426,
    " inc": 427,
    " ?": 428,
    "aid": 429,
    "ip": 430,
    " saf": 431,
    " year": 432,
    " qu": 433,
    "reg": 434,
    " lease": 435,
    "ll": 436,
    "tive": 437,
    " within": 438,
    " dis": 439,
    "ill": 440,
    " k": 441,
    "ained": 442,
    "tit": 443,
    " cl": 444,
    "aft": 445,
    " indi": 446,
    " time": 447,
    " author": 448,
    " com": 449,
    " [": 450,
    " ad": 451,
    "vey": 452,
    " ke": 453,
    "regulation": 454,
    " shaft": 455,
    " purpose": 456,
    " provision": 457,
    "form": 458,
    "til": 459,
    " sec": 460,
    " condi": 461,
    " sign": 462,
    "ail": 463,
    " used": 464,
    "em": 465,
    "ive": 466,
    " dist": 467,
    " place": 468,
    " pres": 469,
    " car": 470,
    "ties": 471,
    "uring": 472,
    "ass": 473,
    "rac": 474,
    " form": 475,
    " op": 476,
    " days": 477,
    "ject": 478,
    " 19": 479,
    " examination": 480,
    " one": 481,
    " ii": 482,
    "ree": 483,
    " agent": 484,
    " date": 485,
    " maint": 486,
    " been": 487,
    "hed": 488,
    " minerals": 489,
    "ety": 490,
    "ved": 491,
    "man": 492,
    " ta": 493,
    " noti": 494,
    "iod": 495,
    "aus": 496,
    "igh": 497,
    " du": 498,
    " period": 499,
    "umber": 500,
    "specting": 501,
    "ground": 502,
    "iss": 503,
    " prospecting": 504,
    " specified": 505,
    "los": 506,
    " when": 507,
    " hol": 508,
    " state": 509,
    " kept": 510,
    " appro": 511,
    " incl": 512,
    " number": 513,
    " safety": 514,
    " name": 515,
    " thereof": 516,
    " regulations": 517,
    " during": 518,
    "ised": 519,
    " who": 520,
    "ional": 521,
    " compet": 522,
    "our": 523,
    " ass": 524,
    " employed": 525,
    " la": 526,
    " det": 527,
    " engineer": 528,
    " conditions": 529,
    " appo": 530,
    " regional": 531,
    " provisions": 532,
    "ub": 533,
    " specify": 534,
    "fore": 535,
    " less": 536,
    "less": 537,
    "),": 538,
    " gen": 539,
    "way": 540,
    " subject": 541,
    "to": 542,
    "up": 543,
    "22": 544,
    " workings": 545,
    " sto": 546,
    " therein": 547,
    "ck": 548,
    " mon": 549,
    "ight": 550,
    " conc": 551,
    "kk": 552,
    " before": 553,
    " have": 554,
    " competent": 555,
    " use": 556,
    "ust": 557,
    " do": 558,
    " him": 559,
    " win": 560,
    " appl": 561,
    "ach": 562,
    "entral": 563,
    " tw": 564,
    " carr": 565,
    " lic": 566,
    " central": 567,
    "ang": 568,
    "99": 569,
    " cons": 570,
    " unless": 571,
    " respect": 572,
    "est": 573,
    " plan": 574,
    " j": 575,
    " notice": 576,
    "@@": 577,
    "ise": 578,
    " fir": 579,
    " dire": 580,
    "si": 581,
    " abo": 582,
    " board": 583,
    "ause": 584,
    " prev": 585,
    " mach": 586,
    " required": 587,
    "ue": 588,
    " more": 589,
    "88": 590,
    " hkk": 591,
    " char": 592,
    " rules": 593,
    "ap": 594,
    " these": 595,
    "ies": 596,
    " permit": 597,
    " tr": 598,
    " dr": 599,
    "au": 600,
    "ran": 601,
    "rict": 602,
    " fire": 603,
    "az": 604,
    "urn": 605,
    " over": 606,
    " operations": 607,
    " supp": 608,
    "ech": 609,
    " sc": 610,
    " .": 611,
    "iii": 612,
    "ating": 613,
    "ator": 614,
    " record": 615,
    " contro": 616,
    "so": 617,
    " ra": 618,
    " after": 619,
    "entil": 620,
    "section": 621,
    " ventil": 622,
    "________________": 623,
    " official": 624,
    " ef": 625,
    "mo": 626,
    " inst": 627,
    " exceed": 628,
    "ress": 629,
    " med": 630,
    " refer": 631,
    " report": 632,
    "ix": 633,
    ").": 634,
    " belowground": 635,
    "ery": 636,
    "ug": 637,
    " el": 638,
    " month": 639,
    " inclu": 640,
    " maintained": 641,
    " tra": 642,
    "ious": 643,
    "ken": 644,
    "fici": 645,
    " except": 646,
    "----": 647,
    "uct": 648,
    " air": 649,
    " ins": 650,
    " inter": 651,
    " mater": 652,
    " ob": 653,
    " equ": 654,
    " road": 655,
    " material": 656,
    " machin": 657,
    "ular": 658,
    " general": 659,
    "inted": 660,
    "duc": 661,
    " district": 662,
    "ty": 663,
    " also": 664,
    "ving": 665,
    "wer": 666,
    "ication": 667,
    " shot": 668,
    "ab": 669,
    " ....": 670,
    "ven": 671,
    " area": 672,
    " medical": 673,
    " comm": 674,
    " india": 675,
    " dust": 676,
    " gas": 677,
    " appointed": 678,
    "ective": 679,
    " two": 680,
    " same": 681,
    " sa": 682,
    "ugh": 683,
    " bound": 684,
    " rel": 685,
    "onn": 686,
    " ..": 687,
    "cri": 688,
    "ee": 689,
    " 20": 690,
    " above": 691,
    "ecess": 692,
    " duties": 693,
    " gra": 694,
    "44": 695,
    "med": 696,
    "sure": 697,
    " necess": 698,
    " suit": 699,
    " 9": 700,
    " prac": 701,
    " winding": 702,
    " elect": 703,
    "als": 704,
    " ar": 705,
    " approved": 706,
    " machinery": 707,
    " des": 708,
    " first": 709,
    " deg": 710,
    "tal": 711,
    " survey": 712,
    " par": 713,
    " trans": 714,
    " engineering": 715,
    " val": 716,
    " gaz": 717,
    " gazet": 718,
    " lamp": 719,
    " referred": 720,
    " rope": 721,
    " explos": 722,
    " being": 723,
    " convey": 724,
    " necessary": 725,
    " entr": 726,
    " mo": 727,
    " gazette": 728,
    " 10": 729,
    "ining": 730,
    "king": 731,
    "dic": 732,
    "ule": 733,
    " water": 734,
    "aged": 735,
    " each": 736,
    " coal": 737,
    "ments": 738,
    " least": 739,
    " super": 740,
    "ected": 741,
    "ately": 742,
    "pon": 743,
    " end": 744,
    "miss": 745,
    "one": 746,
    " quan": 747,
    "anc": 748,
    " 12": 749,
    "ss": 750,
    "face": 751,
    "ficient": 752,
    " 8": 753,
    "ates": 754,
    " eff": 755,
    ",,": 756,
    "ift": 757,
    " proper": 758,
    "33": 759,
    "55": 760,
    "mitted": 761,
    " direct": 762,
    " sy": 763,
    "ally": 764,
    "ok": 765,
    " suitable": 766,
    "lf": 767,
    " dated": 768,
    " surface": 769,
    " fe": 770,
    "anger": 771,
    "ong": 772,
    "ature": 773,
    "crib": 774,
    " ret": 775,
    "ason": 776,
    "lom": 777,
    "77": 778,
    " employment": 779,
    " ground": 780,
    " inform": 781,
    "ens": 782,
    "tity": 783,
    " prescrib": 784,
    " prec": 785,
    "out": 786,
    "inary": 787,
    ")]": 788,
    " charge": 789,
    " lea": 790,
    " dip": 791,
    "uld": 792,
    " extra": 793,
    "pos": 794,
    "stem": 795,
    "erm": 796,
    " up": 797,
    " into": 798,
    " system": 799,
    " authorised": 800,
    " cop": 801,
    "ings": 802,
    " taken": 803,
    "ale": 804,
    " expl": 805,
    " clause": 806,
    "par": 807,
    " ore": 808,
    "unt": 809,
    " ord": 810,
    " li": 811,
    "log": 812,
    " reason": 813,
    " quantity": 814,
    " licence": 815,
    "ite": 816,
    " cour": 817,
    "erv": 818,
    " shift": 819,
    " rule": 820,
    "ident": 821,
    " diplom": 822,
    "((": 823,
    "part": 824,
    " return": 825,
    " officer": 826,
    " compl": 827,
    "ide": 828,
    "iz": 829,
    "air": 830,
    "ranted": 831,
    " giv": 832,
    "ner": 833,
    " install": 834,
    "ult": 835,
    " granted": 836,
    " cle": 837,
    " book": 838,
    " authority": 839,
    "act": 840,
    " indian": 841,
    " att": 842,
    " haul": 843,
    "fied": 844,
    " class": 845,
    " carry": 846,
    " ac": 847,
    " prevent": 848,
    " 15": 849,
    "ession": 850,
    " dec": 851,
    "are": 852,
    " holder": 853,
    "str": 854,
    " ensure": 855,
    "oration": 856,
    " ty": 857,
    " partic": 858,
    "19": 859,
    "66": 860,
    " years": 861,
    " particular": 862,
    " subs": 863,
    " total": 864,
    " off": 865,
    " ventilation": 866,
    " tub": 867,
    "olog": 868,
    " accident": 869,
    "12": 870,
    " special": 871,
    "ks": 872,
    "ives": 873,
    "ond": 874,
    " practic": 875,
    " should": 876,
    " rece": 877,
    "with": 878,
    " give": 879,
    " sections": 880,
    " imp": 881,
    "rough": 882,
    " occ": 883,
    " plans": 884,
    " diploma": 885,
    "dequ": 886,
    " allow": 887,
    " metres": 888,
    " :-": 889,
    " ren": 890,
    " seam": 891,
    "mission": 892,
    "ases": 893,
    " *": 894,
    " roadway": 895,
    "ared": 896,
    " manner": 897,
    " prescribed": 898,
    "ails": 899,
    " prot": 900,
    " controll": 901,
    " 30": 902,
    " im": 903,
    "medi": 904,
    " open": 905,
    " danger": 906,
    "ane": 907,
    " loc": 908,
    "ho": 909,
    "ined": 910,
    " degree": 911,
    " plac": 912,
    "ordinary": 913,
    " immedi": 914,
    " produc": 915,
    " sched": 916,
    " conveyance": 917,
    " show": 918,
    " qual": 919,
    " suf": 920,
    " carried": 921,
    " extraordinary": 922,
    " adequ": 923,
    " meters": 924,
    " including": 925,
    "ister": 926,
    "lop": 927,
    " cage": 928,
    " grade": 929,
    " hkkx": 930,
    "kj": 931,
    " explosives": 932,
    "su": 933,
    " 111": 934,
    " hkkj": 935,
    " hkkjr": 936,
    " dk": 937,
    " jk": 938,
    " jkti": 939,
    " vl": 940,
    " vlk": 941,
    " 25": 942,
    " equip": 943,
    "echn": 944,
    ".-": 945,
    " assist": 946,
    " disc": 947,
    "inu": 948,
    "av": 949,
    " only": 950,
    " pass": 951,
    " its": 952,
    "een": 953,
    "ency": 954,
    " pay": 955,
    " ent": 956,
    " haulage": 957,
    " ,;": 958,
    " schedule": 959,
    " equipment": 960,
    " again": 961,
    "titut": 962,
    "wise": 963,
    " three": 964,
    " months": 965,
    " fol": 966,
    " ge": 967,
    " make": 968,
    " qualif": 969,
    " register": 970,
    " {": 971,
    " fin": 972,
    "alf": 973,
    "ities": 974,
    "ages": 975,
    " exploration": 976,
    "ren": 977,
    " meas": 978,
    " information": 979,
    " fo": 980,
    "!!": 981,
    " follow": 982,
    "ances": 983,
    "emp": 984,
    "tw": 985,
    " orders": 986,
    " int": 987,
    "velop": 988,
    " power": 989,
    " having": 990,
    " fit": 991,
    " controller": 992,
    " ho": 993,
    "tim": 994,
    "ications": 995,
    " inspec": 996,
    "10": 997,
    " 18": 998,
    " mat": 999,
    " operation": 1000,
    " respon": 1001,
    " without": 1002,
    " \\": 1003,
    " exc": 1004,
    "ever": 1005,
    " techn": 1006,
    " exceeding": 1007,
    " given": 1008,
    " value": 1009,
    "encast": 1010,
    "atus": 1011,
    " contain": 1012,
    " leave": 1013,
    " sufficient": 1014,
    "echan": 1015,
    " conn": 1016,
    "anding": 1017,
    "ours": 1018,
    "istr": 1019,
    " adequate": 1020,
    " opencast": 1021,
    " beh": 1022,
    " stopp": 1023,
    " clos": 1024,
    " mem": 1025,
    "ib": 1026,
    " take": 1027,
    " rest": 1028,
    " against": 1029,
    " 14": 1030,
    " def": 1031,
    " aband": 1032,
    " mechan": 1033,
    "sible": 1034,
    " contra": 1035,
    " bl": 1036,
    " until": 1037,
    " enter": 1038,
    " 00": 1039,
    " abandon": 1040,
    " assistant": 1041,
    " superv": 1042,
    "mpl": 1043,
    "ile": 1044,
    "ned": 1045,
    " constr": 1046,
    "ps": 1047,
    "ished": 1048,
    " once": 1049,
    " bure": 1050,
    " bureau": 1051,
    " said": 1052,
    " type": 1053,
    " immediately": 1054,
    " inf": 1055,
    " we": 1056,
    "iry": 1057,
    "ont": 1058,
    "ures": 1059,
    "sp": 1060,
    " appar": 1061,
    " apparatus": 1062,
    "ended": 1063,
    " fix": 1064,
    "ting": 1065,
    "igned": 1066,
    " geolog": 1067,
    "velopment": 1068,
    " ne": 1069,
    " following": 1070,
    " otherwise": 1071,
    " control": 1072,
    "iance": 1073,
    "arch": 1074,
    "uction": 1075,
    "ness": 1076,
    " ed": 1077,
    " separ": 1078,
    " remo": 1079,
    "aiss": 1080,
    "aissance": 1081,
    "ention": 1082,
    " dep": 1083,
    "pl": 1084,
    " secure": 1085,
    "its": 1086,
    "onnaissance": 1087,
    " 13": 1088,
    "ution": 1089,
    "lam": 1090,
    " term": 1091,
    " copy": 1092,
    "ores": 1093,
    " recorded": 1094,
    "self": 1095,
    " str": 1096,
    " afores": 1097,
    " aforesaid": 1098,
    " precau": 1099,
    "ory": 1100,
    " thir": 1101,
    " submitted": 1102,
    " through": 1103,
    " details": 1104,
    " places": 1105,
    " 1111": 1106,
    " aver": 1107,
    " bu": 1108,
    " gr": 1109,
    " concer": 1110,
    " whether": 1111,
    " thereunder": 1112,
    " hours": 1113,
    " signed": 1114,
    " paged": 1115,
    "15": 1116,
    " electric": 1117,
    " average": 1118,
    " previous": 1119,
    "ses": 1120,
    " code": 1121,
    "ked": 1122,
    " meth": 1123,
    " appoint": 1124,
    " director": 1125,
    " effective": 1126,
    " cap": 1127,
    " cor": 1128,
    " inj": 1129,
    " cause": 1130,
    " fur": 1131,
    " further": 1132,
    " accord": 1133,
    " accordance": 1134,
    "hes": 1135,
    "omic": 1136,
    "mitte": 1137,
    " behalf": 1138,
    "port": 1139,
    " rem": 1140,
    " purposes": 1141,
    " lim": 1142,
    "ish": 1143,
    " their": 1144,
    " mag": 1145,
    " sampl": 1146,
    "no": 1147,
    " proc": 1148,
    " indic": 1149,
    "mable": 1150,
    "vel": 1151,
    " prep": 1152,
    "tis": 1153,
    " permission": 1154,
    " 11": 1155,
    " commence": 1156,
    " direc": 1157,
    " hold": 1158,
    "lammable": 1159,
    " betw": 1160,
    " between": 1161,
    " surveyor": 1162,
    "tc": 1163,
    " am": 1164,
    " opin": 1165,
    " opinion": 1166,
    " 16": 1167,
    "apter": 1168,
    " mechanical": 1169,
    "hol": 1170,
    " fall": 1171,
    " grant": 1172,
    " civ": 1173,
    " civil": 1174,
    " paid": 1175,
    " concerned": 1176,
    " light": 1177,
    "sition": 1178,
    "el": 1179,
    "fir": 1180,
    " etc": 1181,
    " fore": 1182,
    " support": 1183,
    " development": 1184,
    " /[": 1185,
    "tification": 1186,
    " chapter": 1187,
    "ual": 1188,
    " drill": 1189,
    " safe": 1190,
    " satis": 1191,
    " deem": 1192,
    " see": 1193,
    " technical": 1194,
    " sale": 1195,
    "@@@@": 1196,
    " like": 1197,
    " inflammable": 1198,
    " six": 1199,
    " electr": 1200,
    "duct": 1201,
    " distance": 1202,
    " tubs": 1203,
    "**": 1204,
    "mittee": 1205,
    " top": 1206,
    "uly": 1207,
    " add": 1208,
    " office": 1209,
    "ice": 1210,
    " himself": 1211,
    " precautions": 1212,
    " metal": 1213,
    " @@@@": 1214,
    " apply": 1215,
    " particulars": 1216,
    " post": 1217,
    "aw": 1218,
    " issu": 1219,
    " underground": 1220,
    " entry": 1221,
    " stock": 1222,
    " court": 1223,
    " concession": 1224,
    ".]": 1225,
    "ubl": 1226,
    " commencement": 1227,
    "ily": 1228,
    " rail": 1229,
    " occur": 1230,
    "cum": 1231,
    "posed": 1232,
    " inspection": 1233,
    " av": 1234,
    " set": 1235,
    " atomic": 1236,
    " w4": 1237,
    " 60": 1238,
    "arge": 1239,
    "ides": 1240,
    "ars": 1241,
    "eng": 1242,
    " result": 1243,
    " fixed": 1244,
    " will": 1245,
    " 195": 1246,
    "vid": 1247,
    " worked": 1248,
    " second": 1249,
    "raction": 1250,
    "ys": 1251,
    " interv": 1252,
    " 17": 1253,
    "ges": 1254,
    "ither": 1255,
    "ience": 1256,
    " col": 1257,
    " point": 1258,
    " ful": 1259,
    " position": 1260,
    "--------": 1261,
    " plant": 1262,
    " discont": 1263,
    " address": 1264,
    " educ": 1265,
    " education": 1266,
    "ning": 1267,
    "ose": 1268,
    " 29": 1269,
    "ines": 1270,
    "ange": 1271,
    " ser": 1272,
    "ility": 1273,
    " perform": 1274,
    " extraction": 1275,
    " electrical": 1276,
    " five": 1277,
    " pric": 1278,
    "ured": 1279,
    " either": 1280,
    " gener": 1281,
    " exper": 1282,
    " cent": 1283,
    "led": 1284,
    " application": 1285,
    "des": 1286,
    " but": 1287,
    " transport": 1288,
    " showing": 1289,
    " prepared": 1290,
    " contained": 1291,
    " test": 1292,
    " issued": 1293,
    " mainten": 1294,
    " maintenance": 1295,
    " publ": 1296,
    "16": 1297,
    " notification": 1298,
    " consid": 1299,
    " addi": 1300,
    " was": 1301,
    " sp": 1302,
    " protective": 1303,
    ",,,": 1304,
    "sr": 1305,
    "ex": 1306,
    " materials": 1307,
    " supply": 1308,
    " them": 1309,
    " acco": 1310,
    " cand": 1311,
    " candid": 1312,
    " deemed": 1313,
    " ,,,,": 1314,
    " .)": 1315,
    "tt": 1316,
    " discontinu": 1317,
    " instr": 1318,
    " tonn": 1319,
    " obt": 1320,
    "thing": 1321,
    " reconnaissance": 1322,
    " down": 1323,
    " clear": 1324,
    "ry": 1325,
    " appe": 1326,
    " (((": 1327,
    " ((((": 1328,
    " lower": 1329,
    " pill": 1330,
    " permitted": 1331,
    " meet": 1332,
    " practicable": 1333,
    " gsr": 1334,
    " bas": 1335,
    " can": 1336,
    " while": 1337,
    "ivers": 1338,
    " concentr": 1339,
    " licen": 1340,
    "mining": 1341,
    " price": 1342,
    "ible": 1343,
    "me": 1344,
    " ste": 1345,
    "tial": 1346,
    "ves": 1347,
    " alter": 1348,
    " present": 1349,
    " allowed": 1350,
    " leases": 1351,
    "[(": 1352,
    " u": 1353,
    " committee": 1354,
    " likely": 1355,
    " they": 1356,
    " duly": 1357,
    "any": 1358,
    "ises": 1359,
    "li": 1360,
    " thirty": 1361,
    " chair": 1362,
    " chairman": 1363,
    "ors": 1364,
    " repair": 1365,
    " wages": 1366,
    " winz": 1367,
    " ib": 1368,
    " extend": 1369,
    "uty": 1370,
    "ful": 1371,
    " buil": 1372,
    "ilities": 1373,
    "ension": 1374,
    "pat": 1375,
    " contraven": 1376,
    "ches": 1377,
    " ________________": 1378,
    " 222": 1379,
    "vi": 1380,
    " fl": 1381,
    "ement": 1382,
    "other": 1383,
    "erg": 1384,
    " mis": 1385,
    " cir": 1386,
    " addition": 1387,
    "orted": 1388,
    "bers": 1389,
    "fy": 1390,
    " arran": 1391,
    " arrange": 1392,
    " exist": 1393,
    "ph": 1394,
    "ences": 1395,
    " experience": 1396,
    "atic": 1397,
    "ross": 1398,
    " intervals": 1399,
    " load": 1400,
    " applic": 1401,
    " winze": 1402,
    " supervision": 1403,
    " direction": 1404,
    " bore": 1405,
    " bott": 1406,
    "charge": 1407,
    " duty": 1408,
    " injur": 1409,
    " installation": 1410,
    " avail": 1411,
    " whenever": 1412,
    "ta": 1413,
    " tre": 1414,
    " room": 1415,
    " 44": 1416,
    "8888": 1417,
    "ior": 1418,
    " hand": 1419,
    "hing": 1420,
    " seven": 1421,
    " anything": 1422,
    "aster": 1423,
    "quiry": 1424,
    " stop": 1425,
    "val": 1426,
    "pro": 1427,
    " pow": 1428,
    " signals": 1429,
    " design": 1430,
    "itu": 1431,
    " about": 1432,
    "teen": 1433,
    " rese": 1434,
    " research": 1435,
    " regular": 1436,
    " bye": 1437,
    " siz": 1438,
    " 65": 1439,
    "aneous": 1440,
    "cl": 1441,
    "ld": 1442,
    " free": 1443,
    "hib": 1444,
    "law": 1445,
    " certi": 1446,
    " univers": 1447,
    " university": 1448,
    "men": 1449,
    " signature": 1450,
    " she": 1451,
    "imum": 1452,
    "istration": 1453,
    " matter": 1454,
    "oc": 1455,
    " injury": 1456,
    " due": 1457,
    " four": 1458,
    " stand": 1459,
    " clean": 1460,
    "lock": 1461,
    "lling": 1462,
    " land": 1463,
    ")(": 1464,
    "20": 1465,
    " powers": 1466,
    "tituted": 1467,
    " ventilator": 1468,
    " appointment": 1469,
    "riv": 1470,
    " sent": 1471,
    " candidate": 1472,
    " rev": 1473,
    " underta": 1474,
    " making": 1475,
    " found": 1476,
    " aff": 1477,
    " roof": 1478,
    " adj": 1479,
    " works": 1480,
    "ged": 1481,
    " drum": 1482,
    " generated": 1483,
    " notified": 1484,
    " pos": 1485,
    " exemp": 1486,
    " nature": 1487,
    " course": 1488,
    " count": 1489,
    " furn": 1490,
    " cost": 1491,
    " license": 1492,
    " fired": 1493,
    " rent": 1494,
    " /[)": 1495,
    " 23": 1496,
    " receiv": 1497,
    " consider": 1498,
    " depth": 1499,
    " bottom": 1500,
    " level": 1501,
    " gu": 1502,
    " members": 1503,
    " meeting": 1504,
    " metall": 1505,
    " production": 1506,
    "enced": 1507,
    " che": 1508,
    " available": 1509,
    " amo": 1510,
    " registration": 1511,
    " 40": 1512,
    "erc": 1513,
    " reco": 1514,
    "bon": 1515,
    " stor": 1516,
    " coll": 1517,
    " nor": 1518,
    " dri": 1519,
    "ards": 1520,
    " properly": 1521,
    " signal": 1522,
    " wee": 1523,
    " amount": 1524,
    " sides": 1525,
    " full": 1526,
    " done": 1527,
    " 0": 1528,
    " exerc": 1529,
    " ear": 1530,
    " di": 1531,
    " excav": 1532,
    " cut": 1533,
    " railway": 1534,
    " remain": 1535,
    "min": 1536,
    " change": 1537,
    " possible": 1538,
    "ceed": 1539,
    "ind": 1540,
    " provide": 1541,
    " good": 1542,
    " reduc": 1543,
    " br": 1544,
    " installed": 1545,
    " size": 1546,
    " condition": 1547,
    " ru": 1548,
    "199": 1549,
    " methane": 1550,
    "hole": 1551,
    " susp": 1552,
    " building": 1553,
    "sib": 1554,
    " em": 1555,
    " holding": 1556,
    " heal": 1557,
    " health": 1558,
    " construct": 1559,
    " dev": 1560,
    "let": 1561,
    " mar": 1562,
    " produced": 1563,
    "ading": 1564,
    " station": 1565,
    "ending": 1566,
    "read": 1567,
    " proced": 1568,
    " compliance": 1569,
    " week": 1570,
    " securely": 1571,
    " 2222": 1572,
    " 22": 1573,
    " poss": 1574,
    "enty": 1575,
    " company": 1576,
    " instit": 1577,
    " cal": 1578,
    "gra": 1579,
    " flo": 1580,
    "unc": 1581,
    " submit": 1582,
    " bel": 1583,
    " fif": 1584,
    " engineman": 1585,
    " obtained": 1586,
    "abl": 1587,
    "ength": 1588,
    "ify": 1589,
    " cr": 1590,
    "rule": 1591,
    " blaster": 1592,
    "by": 1593,
    " main": 1594,
    " ban": 1595,
    " along": 1596,
    " carbon": 1597,
    " situ": 1598,
    " rate": 1599,
    " laid": 1600,
    "ump": 1601,
    " responsib": 1602,
    " bra": 1603,
    " abs": 1604,
    " decision": 1605,
    " training": 1606,
    " dif": 1607,
    " obs": 1608,
    " length": 1609,
    " shots": 1610,
    "lease": 1611,
    " rupe": 1612,
    "tain": 1613,
    " basis": 1614,
    "ep": 1615,
    " heating": 1616,
    " connection": 1617,
    "ters": 1618,
    " storage": 1619,
    " copies": 1620,
    " far": 1621,
    " determ": 1622,
    " effect": 1623,
    " attend": 1624,
    " non": 1625,
    " contravention": 1626,
    " content": 1627,
    " unit": 1628,
    " rupees": 1629,
    " 45": 1630,
    " management": 1631,
    " superior": 1632,
    " boundary": 1633,
    "titute": 1634,
    "hip": 1635,
    " clo": 1636,
    "standing": 1637,
    " struct": 1638,
    "iden": 1639,
    " fa": 1640,
    " qualifications": 1641,
    "ough": 1642,
    " proposed": 1643,
    " practi": 1644,
    " recei": 1645,
    " prohib": 1646,
    "rec": 1647,
    " trac": 1648,
    " cover": 1649,
    "86": 1650,
    " }": 1651,
    "ires": 1652,
    "put": 1653,
    " age": 1654,
    " assoc": 1655,
    " associ": 1656,
    "here": 1657,
    "line": 1658,
    " opening": 1659,
    " pillars": 1660,
    "op": 1661,
    " payment": 1662,
    " cases": 1663,
    " carrying": 1664,
    " action": 1665,
    "laws": 1666,
    " degre": 1667,
    " degrees": 1668,
    "see": 1669,
    " samples": 1670,
    "ack": 1671,
    " mod": 1672,
    " ;,": 1673,
    " 24": 1674,
    "0000": 1675,
    " namely": 1676,
    " force": 1677,
    "fact": 1678,
    "ird": 1679,
    "ket": 1680,
    " bod": 1681,
    " long": 1682,
    "omo": 1683,
    " height": 1684,
    " dam": 1685,
    " connected": 1686,
    " conduct": 1687,
    " capac": 1688,
    " measures": 1689,
    "iron": 1690,
    " lamps": 1691,
    " efficient": 1692,
    "000": 1693,
    " 26": 1694,
    "dra": 1695,
    " forth": 1696,
    "withstanding": 1697,
    "ease": 1698,
    "ival": 1699,
    " pri": 1700,
    " prior": 1701,
    " officials": 1702,
    " workers": 1703,
    " examine": 1704,
    "holes": 1705,
    "ification": 1706,
    " applicable": 1707,
    " directorate": 1708,
    " ibid": 1709,
    " abandoned": 1710,
    " fan": 1711,
    "old": 1712,
    "ata": 1713,
    " locomo": 1714,
    " store": 1715,
    "isation": 1716,
    " capacity": 1717,
    " receipt": 1718,
    " those": 1719,
    "gress": 1720,
    " separately": 1721,
    "4444": 1722,
    " dra": 1723,
    " received": 1724,
    " temp": 1725,
    " relating": 1726,
    " abandonment": 1727,
    " discontinuance": 1728,
    " reasons": 1729,
    " notwithstanding": 1730,
    " transfer": 1731,
    "ifer": 1732,
    " separate": 1733,
    "vers": 1734,
    "ud": 1735,
    "velling": 1736,
    "ently": 1737,
    "ft": 1738,
    "vii": 1739,
    " twenty": 1740,
    " accomp": 1741,
    " dump": 1742,
    " continu": 1743,
    " constructed": 1744,
    "ators": 1745,
    " complet": 1746,
    " magaz": 1747,
    " max": 1748,
    " maximum": 1749,
    "yal": 1750,
    " new": 1751,
    " ]": 1752,
    " 62": 1753,
    " responsible": 1754,
    " assigned": 1755,
    " serv": 1756,
    " fill": 1757,
    " forthwith": 1758,
    " owners": 1759,
    " closure": 1760,
    " machine": 1761,
    "ons": 1762,
    " prohibit": 1763,
    " arrangements": 1764,
    "rid": 1765,
    " engaged": 1766,
    " ben": 1767,
    "1111": 1768,
    "3333": 1769,
    " #": 1770,
    " overman": 1771,
    " gass": 1772,
    " misf": 1773,
    " ris": 1774,
    " member": 1775,
    " serious": 1776,
    " proceed": 1777,
    " metallifer": 1778,
    " thor": 1779,
    "uctions": 1780,
    "ones": 1781,
    " est": 1782,
    "ational": 1783,
    " inquiry": 1784,
    "lot": 1785,
    " construction": 1786,
    " resour": 1787,
    " decl": 1788,
    " export": 1789,
    " royal": 1790,
    "2222": 1791,
    "5555": 1792,
    ":-": 1793,
    " relation": 1794,
    " institution": 1795,
    " hole": 1796,
    "amet": 1797,
    " public": 1798,
    " records": 1799,
    " reported": 1800,
    " emerg": 1801,
    " equival": 1802,
    " equivalent": 1803,
    "app": 1804,
    " presence": 1805,
    " standard": 1806,
    " ver": 1807,
    " metalliferous": 1808,
    "ably": 1809,
    " operated": 1810,
    " travelling": 1811,
    " outlet": 1812,
    "atory": 1813,
    " offence": 1814,
    "9999": 1815,
    " \",": 1816,
    " drilling": 1817,
    " another": 1818,
    " exceeds": 1819,
    " excavation": 1820,
    " locomotive": 1821,
    " intended": 1822,
    " prem": 1823,
    " quar": 1824,
    " shafts": 1825,
    " both": 1826,
    " matters": 1827,
    "com": 1828,
    " practical": 1829,
    " satisfied": 1830,
    "arded": 1831,
    " restric": 1832,
    " fact": 1833,
    " table": 1834,
    " hor": 1835,
    " steps": 1836,
    " establ": 1837,
    "ces": 1838,
    " defect": 1839,
    "ached": 1840,
    " examined": 1841,
    "1999": 1842,
    " 31": 1843,
    " whole": 1844,
    " fac": 1845,
    " face": 1846,
    " commun": 1847,
    " structure": 1848,
    " ind": 1849,
    "omatic": 1850,
    " procedure": 1851,
    " interfer": 1852,
    " workmen": 1853,
    "ability": 1854,
    "use": 1855,
    " terms": 1856,
    "ne": 1857,
    " block": 1858,
    " contriv": 1859,
    " lin": 1860,
    " resp": 1861,
    " deton": 1862,
    "........": 1863,
    " del": 1864,
    " 188": 1865,
    " 50": 1866,
    " sird": 1867,
    " law": 1868,
    "ten": 1869,
    " way": 1870,
    " alread": 1871,
    " already": 1872,
    " reports": 1873,
    " compens": 1874,
    " certificates": 1875,
    " wo": 1876,
    " automatic": 1877,
    " reserv": 1878,
    " ref": 1879,
    " welf": 1880,
    " welfare": 1881,
    " run": 1882,
    " pun": 1883,
    " parts": 1884,
    " cross": 1885,
    "date": 1886,
    " entrance": 1887,
    "ative": 1888,
    " near": 1889,
    " magazine": 1890,
    " !!": 1891,
    " maintain": 1892,
    " situated": 1893,
    "pes": 1894,
    " pr": 1895,
    " ve": 1896,
    "anied": 1897,
    " requirements": 1898,
    " fra": 1899,
    "formation": 1900,
    " certify": 1901,
    " whose": 1902,
    " thorough": 1903,
    "fully": 1904,
    " roadways": 1905,
    " beg": 1906,
    "ick": 1907,
    "ateg": 1908,
    " indicate": 1909,
    " royalty": 1910,
    "____________": 1911,
    " ---": 1912,
    " 55": 1913,
    "spective": 1914,
    " tool": 1915,
    " does": 1916,
    " ten": 1917,
    " misfire": 1918,
    " accompanied": 1919,
    ".,": 1920,
    " pul": 1921,
    " raised": 1922,
    "ling": 1923,
    "get": 1924,
    "ew": 1925,
    " nothing": 1926,
    " measure": 1927,
    " stopping": 1928,
    " begin": 1929,
    " geological": 1930,
    "72": 1931,
    "________________________________": 1932,
    " 21": 1933,
    " sirdar": 1934,
    "ising": 1935,
    " subst": 1936,
    " include": 1937,
    "cent": 1938,
    " seal": 1939,
    "uding": 1940,
    " loading": 1941,
    " returns": 1942,
    "tices": 1943,
    " pressure": 1944,
    " emergency": 1945,
    " sch": 1946,
    " charges": 1947,
    " renew": 1948,
    "rect": 1949,
    " care": 1950,
    "gan": 1951,
    "erved": 1952,
    " horiz": 1953,
    " cen": 1954,
    " depos": 1955,
    " firing": 1956,
    " cart": 1957,
    "ium": 1958,
    " lessee": 1959,
    " substituted": 1960,
    " exercise": 1961,
    " expiry": 1962,
    "ression": 1963,
    "the": 1964,
    " dangerous": 1965,
    "after": 1966,
    " containing": 1967,
    " disease": 1968,
    "):": 1969,
    " times": 1970,
    " scho": 1971,
    " school": 1972,
    " foreman": 1973,
    " appeal": 1974,
    " differ": 1975,
    " sour": 1976,
    " location": 1977,
    " occup": 1978,
    " correct": 1979,
    " keep": 1980,
    " supports": 1981,
    " motion": 1982,
    "aching": 1983,
    " horizon": 1984,
    " horizontal": 1985,
    " categ": 1986,
    " cartrid": 1987,
    "information": 1988,
    "specify": 1989,
    " 38": 1990,
    " here": 1991,
    " banks": 1992,
    " landing": 1993,
    " kno": 1994,
    "firer": 1995,
    " perman": 1996,
    "ak": 1997,
    " service": 1998,
    " driver": 1999,
    " limit": 2000,
    " scale": 2001,
    " additional": 2002,
    " removed": 2003,
    " limits": 2004,
    "inking": 2005,
    " !!!!": 2006,
    "13": 2007,
    "kes": 2008,
    "aries": 2009,
    " method": 2010,
    " moving": 2011,
    " spon": 2012,
    " held": 2013,
    " appli": 2014,
    " appliances": 2015,
    " wag": 2016,
    "ition": 2017,
    " sim": 2018,
    " ph": 2019,
    " had": 2020,
    "tical": 2021,
    " mate": 2022,
    " managers": 2023,
    " tonnes": 2024,
    " prepar": 2025,
    "oring": 2026,
    "erve": 2027,
    " falling": 2028,
    " linked": 2029,
    " inv": 2030,
    " manu": 2031,
    " au": 2032,
    "urren": 2033,
    " includes": 2034,
    " contract": 2035,
    " magistr": 2036,
    " explosive": 2037,
    " spont": 2038,
    " spontaneous": 2039,
    " flame": 2040,
    " designation": 2041,
    " sand": 2042,
    "inc": 2043,
    " te": 2044,
    " upon": 2045,
    " interest": 2046,
    " circ": 2047,
    " brough": 2048,
    " brought": 2049,
    "umn": 2050,
    " dail": 2051,
    " daily": 2052,
    "ms": 2053,
    " others": 2054,
    " asc": 2055,
    " effectively": 2056,
    " approval": 2057,
    "rease": 2058,
    " rock": 2059,
    " declared": 2060,
    " fine": 2061,
    "))": 2062,
    "6666": 2063,
    " magistrate": 2064,
    " access": 2065,
    " rele": 2066,
    " complied": 2067,
    " side": 2068,
    " tele": 2069,
    "tioner": 2070,
    "orem": 2071,
    " counters": 2072,
    " soon": 2073,
    " withdra": 2074,
    " falls": 2075,
    " complete": 2076,
    "hold": 2077,
    " cant": 2078,
    " 2015": 2079,
    " ----": 2080,
    "7777": 2081,
    " lab": 2082,
    "atur": 2083,
    " manufact": 2084,
    " airway": 2085,
    " plat": 2086,
    " port": 2087,
    "lier": 2088,
    "open": 2089,
    " occurren": 2090,
    " chain": 2091,
    " mention": 2092,
    " posted": 2093,
    " surge": 2094,
    " suspension": 2095,
    " column": 2096,
    " discharge": 2097,
    " doub": 2098,
    " doubt": 2099,
    " different": 2100,
    " shifts": 2101,
    " instructions": 2102,
    "co": 2103,
    " check": 2104,
    " extended": 2105,
    " timber": 2106,
    "aut": 2107,
    " foo": 2108,
    "tiv": 2109,
    " stones": 2110,
    " stocks": 2111,
    " container": 2112,
    "ervation": 2113,
    " inser": 2114,
    " inserted": 2115,
    "mine": 2116,
    " furnished": 2117,
    " despat": 2118,
    " valorem": 2119,
    "14": 2120,
    " 196": 2121,
    "qq": 2122,
    " natur": 2123,
    " gassy": 2124,
    "acent": 2125,
    "cluding": 2126,
    "ris": 2127,
    " pi": 2128,
    " subregulation": 2129,
    " caus": 2130,
    " iden": 2131,
    " lowered": 2132,
    " endanger": 2133,
    " qualified": 2134,
    " practitioner": 2135,
    " interfere": 2136,
    "ieved": 2137,
    " arises": 2138,
    "pri": 2139,
    "verse": 2140,
    " transportation": 2141,
    "usti": 2142,
    " lighting": 2143,
    " floor": 2144,
    "author": 2145,
    " buc": 2146,
    " bucket": 2147,
    " conveyor": 2148,
    "met": 2149,
    "lotted": 2150,
    " licences": 2151,
    " certain": 2152,
    "omm": 2153,
    "ank": 2154,
    " financ": 2155,
    " incline": 2156,
    "urrent": 2157,
    " tempor": 2158,
    " last": 2159,
    " percent": 2160,
    " tonne": 2161,
    " comb": 2162,
    " risk": 2163,
    "ds": 2164,
    " circum": 2165,
    " brake": 2166,
    " fifteen": 2167,
    "iness": 2168,
    " absence": 2169,
    " ter": 2170,
    " restricted": 2171,
    "arding": 2172,
    " evid": 2173,
    " certifying": 2174,
    " excess": 2175,
    " var": 2176,
    " reasonable": 2177,
    " monit": 2178,
    " protection": 2179,
    " bar": 2180,
    "aff": 2181,
    " entries": 2182,
    "alys": 2183,
    " wet": 2184,
    " fenced": 2185,
    " unauthor": 2186,
    " oil": 2187,
    " centim": 2188,
    " centimet": 2189,
    "inal": 2190,
    " activ": 2191,
    " canteen": 2192,
    " geologist": 2193,
    " allotted": 2194,
    " punish": 2195,
    " 8888": 2196,
    "dd": 2197,
    " 37": 2198,
    "zz": 2199,
    " mm": 2200,
    " considered": 2201,
    " extent": 2202,
    " call": 2203,
    "ices": 2204,
    "ested": 2205,
    "used": 2206,
    "ging": 2207,
    " diamet": 2208,
    " fail": 2209,
    " sampling": 2210,
    " jur": 2211,
    " juris": 2212,
    " jurisdic": 2213,
    " jurisdiction": 2214,
    "inue": 2215,
    " regist": 2216,
    " responsibilities": 2217,
    " appear": 2218,
    " gear": 2219,
    " coup": 2220,
    "lement": 2221,
    " er": 2222,
    " toget": 2223,
    " together": 2224,
    "go": 2225,
    "inate": 2226,
    " appropri": 2227,
    " obstr": 2228,
    " employee": 2229,
    "uments": 2230,
    " device": 2231,
    " fails": 2232,
    " unauthorised": 2233,
    " contrivance": 2234,
    " lock": 2235,
    " red": 2236,
    " agency": 2237,
    " appell": 2238,
    " 58": 2239,
    ");": 2240,
    " output": 2241,
    "eding": 2242,
    " financial": 2243,
    " individ": 2244,
    " body": 2245,
    " succ": 2246,
    " premises": 2247,
    " hig": 2248,
    " permanent": 2249,
    " coming": 2250,
    " ann": 2251,
    " closed": 2252,
    " occurrence": 2253,
    " bre": 2254,
    " teleph": 2255,
    " compensation": 2256,
    " send": 2257,
    " iss": 2258,
    " issue": 2259,
    " evidence": 2260,
    " surgeon": 2261,
    " qualification": 2262,
    "resent": 2263,
    " reduction": 2264,
    " giving": 2265,
    " appropriate": 2266,
    " indust": 2267,
    " aw": 2268,
    " conven": 2269,
    " placed": 2270,
    " und": 2271,
    "pto": 2272,
    " reference": 2273,
    "ger": 2274,
    " areas": 2275,
    " beginning": 2276,
    "iding": 2277,
    " vertical": 2278,
    " providing": 2279,
    " liable": 2280,
    " wast": 2281,
    " dead": 2282,
    "ati": 2283,
    " category": 2284,
    " geology": 2285,
    " rom": 2286,
    "----------------": 2287,
    "777": 2288,
    " 51": 2289,
    " 80": 2290,
    "ferred": 2291,
    "vered": 2292,
    " respective": 2293,
    " possess": 2294,
    " current": 2295,
    " adjacent": 2296,
    " heav": 2297,
    "ically": 2298,
    " platform": 2299,
    " iv": 2300,
    " quarter": 2301,
    " ev": 2302,
    "encing": 2303,
    " relev": 2304,
    " relevant": 2305,
    " norm": 2306,
    "ath": 2307,
    " item": 2308,
    " throughout": 2309,
    " territ": 2310,
    " inspections": 2311,
    " exempt": 2312,
    "iring": 2313,
    " written": 2314,
    " represent": 2315,
    " spe": 2316,
    " seams": 2317,
    " facilities": 2318,
    "iew": 2319,
    " observed": 2320,
    " dress": 2321,
    " wid": 2322,
    " process": 2323,
    " line": 2324,
    " thin": 2325,
    "ales": 2326,
    " institute": 2327,
    "ustible": 2328,
    " dom": 2329,
    " domes": 2330,
    " domestic": 2331,
    " 2016": 2332,
    " descri": 2333,
    " descrip": 2334,
    " description": 2335,
    " concentrates": 2336,
    " 27": 2337,
    "17": 2338,
    " 7777": 2339,
    " 33": 2340,
    " 52": 2341,
    "18": 2342,
    " called": 2343,
    " preceding": 2344,
    " boundaries": 2345,
    " blast": 2346,
    " appliance": 2347,
    " diameter": 2348,
    " charged": 2349,
    " notices": 2350,
    " circumst": 2351,
    " circumstances": 2352,
    " pursu": 2353,
    " smo": 2354,
    " nox": 2355,
    " noxious": 2356,
    " sl": 2357,
    " maj": 2358,
    " major": 2359,
    " implement": 2360,
    "ulate": 2361,
    " well": 2362,
    "les": 2363,
    " door": 2364,
    " lad": 2365,
    " width": 2366,
    " sun": 2367,
    " sunk": 2368,
    " outlets": 2369,
    " iron": 2370,
    " hund": 2371,
    " hundred": 2372,
    " resources": 2373,
    " pol": 2374,
    " remar": 2375,
    " amend": 2376,
    " waste": 2377,
    "missible": 2378,
    " bene": 2379,
    " please": 2380,
    "manag": 2381,
    "manager": 2382,
    " colle": 2383,
    " college": 2384,
    "mm": 2385,
    " firm": 2386,
    " banksman": 2387,
    "arily": 2388,
    " strata": 2389,
    " heavy": 2390,
    " registers": 2391,
    " read": 2392,
    " mentioned": 2393,
    " injured": 2394,
    " testing": 2395,
    " know": 2396,
    "fit": 2397,
    " speed": 2398,
    " explan": 2399,
    " env": 2400,
    "tig": 2401,
    " attendance": 2402,
    " remove": 2403,
    " upto": 2404,
    " clearly": 2405,
    "ecting": 2406,
    " stud": 2407,
    " organ": 2408,
    " stoppage": 2409,
    " regul": 2410,
    " analys": 2411,
    " func": 2412,
    " back": 2413,
    "indic": 2414,
    "ched": 2415,
    " project": 2416,
    " war": 2417,
    "not": 2418,
    " dim": 2419,
    " dimension": 2420,
    " substan": 2421,
    " examining": 2422,
    " filled": 2423,
    " closing": 2424,
    " sm": 2425,
    " leg": 2426,
    " es": 2427,
    " permissible": 2428,
    "firing": 2429,
    " conservation": 2430,
    " stoping": 2431,
    " punishable": 2432,
    " overse": 2433,
    "198": 2434,
    " 48": 2435,
    " intention": 2436,
    " mean": 2437,
    " tools": 2438,
    " gall": 2439,
    " electricity": 2440,
    " third": 2441,
    " stone": 2442,
    " account": 2443,
    " alteration": 2444,
    " ur": 2445,
    " territor": 2446,
    " jo": 2447,
    " reduced": 2448,
    " dispat": 2449,
    " explanation": 2450,
    " regard": 2451,
    " designed": 2452,
    " how": 2453,
    " get": 2454,
    " gate": 2455,
    " shown": 2456,
    "ighting": 2457,
    "ient": 2458,
    " entering": 2459,
    " countersigned": 2460,
    "pper": 2461,
    "ased": 2462,
    " provis": 2463,
    " lang": 2464,
    " langu": 2465,
    "ira": 2466,
    "irable": 2467,
    " mob": 2468,
    " mobile": 2469,
    " final": 2470,
    "former": 2471,
    " lat": 2472,
    "time": 2473,
    "own": 2474,
    "reconnaissance": 2475,
    "exam": 2476,
    " holds": 2477,
    "ake": 2478,
    " dig": 2479,
    " hy": 2480,
    " inset": 2481,
    " intim": 2482,
    "ife": 2483,
    " gases": 2484,
    "mail": 2485,
    " results": 2486,
    "ded": 2487,
    " registered": 2488,
    "ute": 2489,
    " fees": 2490,
    " possession": 2491,
    "quent": 2492,
    " incom": 2493,
    " preparation": 2494,
    "udic": 2495,
    " deal": 2496,
    " source": 2497,
    " communication": 2498,
    " established": 2499,
    " fence": 2500,
    " spo": 2501,
    " cleaned": 2502,
    " hous": 2503,
    " repl": 2504,
    "ickness": 2505,
    " inclination": 2506,
    " attached": 2507,
    "nal": 2508,
    " undertaken": 2509,
    " proviso": 2510,
    " ini": 2511,
    " omitted": 2512,
    " 1999": 2513,
    "2015": 2514,
    " association": 2515,
    " extract": 2516,
    "den": 2517,
    "ins": 2518,
    " search": 2519,
    " sixty": 2520,
    " ownership": 2521,
    " bey": 2522,
    " beyond": 2523,
    "aring": 2524,
    " fitness": 2525,
    " temporary": 2526,
    " conducted": 2527,
    " examin": 2528,
    " regarding": 2529,
    " applications": 2530,
    " acqu": 2531,
    " fee": 2532,
    " prej": 2533,
    " prejudic": 2534,
    " continuous": 2535,
    " stem": 2536,
    "ingu": 2537,
    " reservo": 2538,
    " reservoir": 2539,
    " lead": 2540,
    " remarks": 2541,
    "sc": 2542,
    "ica": 2543,
    "umed": 2544,
    "].": 2545,
    "viii": 2546,
    " natural": 2547,
    "ili": 2548,
    " local": 2549,
    " percentage": 2550,
    "from": 2551,
    "bur": 2552,
    " pipe": 2553,
    " travel": 2554,
    " actual": 2555,
    " occurs": 2556,
    " corres": 2557,
    " correspon": 2558,
    " fax": 2559,
    " becom": 2560,
    " iii": 2561,
    " consist": 2562,
    " driv": 2563,
    " continue": 2564,
    " right": 2565,
    "going": 2566,
    " format": 2567,
    "ordinate": 2568,
    " start": 2569,
    " levels": 2570,
    " progress": 2571,
    " requiring": 2572,
    " staff": 2573,
    " minor": 2574,
    " suppression": 2575,
    " regularly": 2576,
    " thoroughly": 2577,
    " gates": 2578,
    "imed": 2579,
    "aced": 2580,
    "ital": 2581,
    "including": 2582,
    " immediate": 2583,
    " deposit": 2584,
    "itation": 2585,
    "ox": 2586,
    "ecution": 2587,
    " respirable": 2588,
    " cable": 2589,
    "___": 2590,
    " note": 2591,
    "formerly": 2592,
    " initial": 2593,
    "examination": 2594,
    " 1952": 2595,
    " 35": 2596,
    " ),": 2597,
    " 32": 2598,
    " raising": 2599,
    "umin": 2600,
    " discontinued": 2601,
    "ying": 2602,
    "inct": 2603,
    " pursuance": 2604,
    " liqu": 2605,
    " men": 2606,
    " endangered": 2607,
    "ret": 2608,
    " whom": 2609,
    " authorise": 2610,
    "gn": 2611,
    "mpt": 2612,
    " country": 2613,
    " reasonably": 2614,
    " responsibility": 2615,
    " haz": 2616,
    " inves": 2617,
    " investig": 2618,
    "ducts": 2619,
    " directions": 2620,
    " comply": 2621,
    " carefully": 2622,
    " manger": 2623,
    " resc": 2624,
    " treat": 2625,
    "orne": 2626,
    " stations": 2627,
    " dimensions": 2628,
    " bro": 2629,
    " applied": 2630,
    " spl": 2631,
    " shel": 2632,
    " authorities": 2633,
    "usive": 2634,
    " reserve": 2635,
    " thres": 2636,
    " threshold": 2637,
    "she": 2638,
    " kg": 2639,
    " 1884": 2640,
    " **": 2641,
    " 150": 2642,
    " 56": 2643,
    " labour": 2644,
    " lowering": 2645,
    " intake": 2646,
    " cast": 2647,
    " meter": 2648,
    " supplier": 2649,
    "auses": 2650,
    " explosion": 2651,
    " liquid": 2652,
    " vo": 2653,
    "posal": 2654,
    " furnish": 2655,
    " subordinate": 2656,
    " prejudice": 2657,
    " taking": 2658,
    " environ": 2659,
    " monitoring": 2660,
    " invol": 2661,
    " accur": 2662,
    " remed": 2663,
    " supervis": 2664,
    " put": 2665,
    " pho": 2666,
    " pin": 2667,
    "ees": 2668,
    " treatment": 2669,
    "tice": 2670,
    " removal": 2671,
    " measured": 2672,
    " away": 2673,
    " move": 2674,
    " 194": 2675,
    "regulations": 2676,
    "urb": 2677,
    " certified": 2678,
    " stee": 2679,
    " covered": 2680,
    " language": 2681,
    " analysis": 2682,
    " sche": 2683,
    " cartridges": 2684,
    " detonators": 2685,
    " cum": 2686,
    " gold": 2687,
    "owner": 2688,
    " latr": 2689,
    "196": 2690,
    "***": 2691,
    " 47": 2692,
    " -/": 2693,
    " 28": 2694,
    "gg": 2695,
    "ere": 2696,
    " requires": 2697,
    " aux": 2698,
    " auxili": 2699,
    " auxiliary": 2700,
    " render": 2701,
    " twel": 2702,
    " twelve": 2703,
    " defined": 2704,
    " sealed": 2705,
    " stored": 2706,
    " tri": 2707,
    " clauses": 2708,
    "icate": 2709,
    "inafter": 2710,
    " whiche": 2711,
    " whichever": 2712,
    "anged": 2713,
    " majority": 2714,
    " equal": 2715,
    " drive": 2716,
    " admitted": 2717,
    ".)": 2718,
    " passed": 2719,
    " simil": 2720,
    " similar": 2721,
    " bring": 2722,
    " exemption": 2723,
    " monthly": 2724,
    " enfor": 2725,
    " assess": 2726,
    " environment": 2727,
    " operating": 2728,
    " accidents": 2729,
    " gau": 2730,
    " instruments": 2731,
    " brakes": 2732,
    " withdraw": 2733,
    "ming": 2734,
    " extingu": 2735,
    "apping": 2736,
    " plane": 2737,
    " wagons": 2738,
    " entit": 2739,
    " entitled": 2740,
    "ways": 2741,
    "head": 2742,
    " disput": 2743,
    " determined": 2744,
    " sinking": 2745,
    " foregoing": 2746,
    " half": 2747,
    " belt": 2748,
    " modif": 2749,
    " blocks": 2750,
    " reach": 2751,
    " isol": 2752,
    " delay": 2753,
    " amendment": 2754,
    "oxide": 2755,
    " incomb": 2756,
    " incombustible": 2757,
    " payable": 2758,
    " territorial": 2759,
    "indicate": 2760,
    " 316": 2761,
    "1986": 2762,
    " appellate": 2763,
    "bb": 2764,
    " ccc": 2765,
    " cccc": 2766,
    " cc": 2767,
    " cc00": 2768,
    " cc00cc": 2769,
    " cc00cc00": 2770,
    " 142": 2771,
    " draft": 2772,
    "ission": 2773,
    " atmo": 2774,
    " atmosp": 2775,
    " pillar": 2776,
    " extracted": 2777,
    " earth": 2778,
    "ipp": 2779,
    " overbur": 2780,
    " overburden": 2781,
    " cutting": 2782,
    "endar": 2783,
    " types": 2784,
    "gen": 2785,
    " event": 2786,
    " suppl": 2787,
    " annual": 2788,
    " belong": 2789,
    " life": 2790,
    " bodily": 2791,
    " ir": 2792,
    " telephone": 2793,
    " list": 2794,
    "ulated": 2795,
    " counc": 2796,
    " council": 2797,
    "ficiency": 2798,
    " relieved": 2799,
    "sh": 2800,
    " unders": 2801,
    " vis": 2802,
    " site": 2803,
    " thereon": 2804,
    " detail": 2805,
    " devices": 2806,
    " obstruction": 2807,
    " ropes": 2808,
    "letion": 2809,
    " accum": 2810,
    " left": 2811,
    "room": 2812,
    " signall": 2813,
    " loose": 2814,
    " desc": 2815,
    " attach": 2816,
    " train": 2817,
    " fitted": 2818,
    "eries": 2819,
    " consult": 2820,
    " operator": 2821,
    " points": 2822,
    " centimeters": 2823,
    " national": 2824,
    " thickness": 2825,
    "os": 2826,
    "aimed": 2827,
    " pit": 2828,
    " disturb": 2829,
    " foundation": 2830,
    " mark": 2831,
    "ets": 2832,
    " hel": 2833,
    " scheme": 2834,
    "side": 2835,
    " treated": 2836,
    " detonator": 2837,
    " benefici": 2838,
    " beneficiation": 2839,
    " forest": 2840,
    " trading": 2841,
    " prescribing": 2842,
    " regulating": 2843,
    " 1972": 2844,
    " published": 2845,
    " affected": 2846,
    " tor": 2847,
    " ventilating": 2848,
    " boo": 2849,
    " blasting": 2850,
    " passage": 2851,
    " calendar": 2852,
    " 31st": 2853,
    "ember": 2854,
    "iver": 2855,
    " remaining": 2856,
    " 1st": 2857,
    " close": 2858,
    " reopen": 2859,
    " collap": 2860,
    " collapse": 2861,
    " head": 2862,
    " pulle": 2863,
    " high": 2864,
    " cess": 2865,
    " adv": 2866,
    " examinations": 2867,
    "ysical": 2868,
    "change": 2869,
    " surveying": 2870,
    " enquiry": 2871,
    " metre": 2872,
    " personal": 2873,
    " authorisation": 2874,
    "orter": 2875,
    " framed": 2876,
    " egress": 2877,
    "onic": 2878,
    " barri": 2879,
    " stoppings": 2880,
    "cut": 2881,
    " clay": 2882,
    "tings": 2883,
    " ends": 2884,
    " marked": 2885,
    " arre": 2886,
    " artic": 2887,
    " self": 2888,
    " undertaking": 2889,
    "ced": 2890,
    " modification": 2891,
    " small": 2892,
    " outside": 2893,
    " however": 2894,
    " fifty": 2895,
    " ey": 2896,
    " ordinary": 2897,
    " boreholes": 2898,
    " ores": 2899,
    " compo": 2900,
    " ibm": 2901,
    " ____________": 2902,
    " alumin": 2903,
    "ole": 2904,
    " shoth": 2905,
    "1a": 2906,
    " 34": 2907,
    " 36": 2908,
    " ss": 2909,
    " constituted": 2910,
    " hereby": 2911,
    " transmit": 2912,
    " stopped": 2913,
    " explo": 2914,
    "etter": 2915,
    " what": 2916,
    " ending": 2917,
    " technolog": 2918,
    " obtain": 2919,
    "umption": 2920,
    " competency": 2921,
    "ided": 2922,
    "idence": 2923,
    " bus": 2924,
    " business": 2925,
    " import": 2926,
    "idential": 2927,
    " some": 2928,
    " satisf": 2929,
    "action": 2930,
    " formed": 2931,
    " renewed": 2932,
    " fre": 2933,
    " practices": 2934,
    " existing": 2935,
    " agg": 2936,
    " practice": 2937,
    " exposed": 2938,
    "mical": 2939,
    " strict": 2940,
    " strictly": 2941,
    "ording": 2942,
    "uous": 2943,
    "acked": 2944,
    " white": 2945,
    " wood": 2946,
    " tested": 2947,
    " ladder": 2948,
    " securing": 2949,
    " ride": 2950,
    "vided": 2951,
    " 199": 2952,
    " calc": 2953,
    "ents": 2954,
    " shelter": 2955,
    "illage": 2956,
    " broken": 2957,
    "hop": 2958,
    " estim": 2959,
    " sel": 2960,
    " respir": 2961,
    " captive": 2962,
    " auction": 2963,
    "agent": 2964,
    "bes": 2965,
    "har": 2966,
    " wom": 2967,
    "engal": 2968,
    " 1957": 2969,
    " ....----": 2970,
    " 0000": 2971,
    " 100": 2972,
    " possessing": 2973,
    " boost": 2974,
    "ract": 2975,
    " holes": 2976,
    " commission": 2977,
    " reven": 2978,
    " revenue": 2979,
    " success": 2980,
    " borehole": 2981,
    " steam": 2982,
    " energ": 2983,
    " plants": 2984,
    " failure": 2985,
    "tire": 2986,
    "hic": 2987,
    " commencing": 2988,
    " belonging": 2989,
    " termination": 2990,
    " statement": 2991,
    " gro": 2992,
    " smoke": 2993,
    "rup": 2994,
    " cages": 2995,
    " cran": 2996,
    " would": 2997,
    " secret": 2998,
    " deli": 2999,
    "utes": 3000,
    "ledge": 3001,
    " defective": 3002,
    " exchange": 3003,
    " atte": 3004,
    " shorter": 3005,
    " surveyors": 3006,
    "isition": 3007,
    " employees": 3008,
    " fully": 3009,
    " standing": 3010,
    " rescue": 3011,
    "borne": 3012,
    "inarily": 3013,
    " inad": 3014,
    " inadver": 3015,
    " inadvert": 3016,
    "isher": 3017,
    " therewith": 3018,
    " rails": 3019,
    " excl": 3020,
    " representative": 3021,
    " substantial": 3022,
    " const": 3023,
    " effected": 3024,
    " low": 3025,
    " data": 3026,
    "jects": 3027,
    " gre": 3028,
    " activities": 3029,
    " split": 3030,
    " loaders": 3031,
    " concentration": 3032,
    " estimated": 3033,
    " zone": 3034,
    " recovery": 3035,
    " phone": 3036,
    "mon": 3037,
    " functions": 3038,
    " lump": 3039,
    " 1986": 3040,
    "hab": 3041,
    " grades": 3042,
    "ude": 3043,
    "pur": 3044,
    " impris": 3045,
    " imprison": 3046,
    " imprisonment": 3047,
    " concessions": 3048,
    "please": 3049,
    " buy": 3050,
    " buyer": 3051,
    " asbes": 3052,
    " asbesto": 3053,
    " asbestos": 3054,
    " corp": 3055,
    " shri": 3056,
    "1987": 3057,
    " conferred": 3058,
    " recomm": 3059,
    "jection": 3060,
    " booster": 3061,
    " sold": 3062,
    " individual": 3063,
    " ap": 3064,
    " therefrom": 3065,
    " manufactur": 3066,
    " entire": 3067,
    " pump": 3068,
    " sock": 3069,
    " misfired": 3070,
    " inde": 3071,
    " promin": 3072,
    ",-": 3073,
    " opened": 3074,
    " agents": 3075,
    " identi": 3076,
    "four": 3077,
    " vac": 3078,
    " secretary": 3079,
    " div": 3080,
    " valid": 3081,
    " kind": 3082,
    " higher": 3083,
    "mity": 3084,
    " educational": 3085,
    " corresponding": 3086,
    " ki": 3087,
    " entered": 3088,
    "resh": 3089,
    " occupational": 3090,
    " establish": 3091,
    " view": 3092,
    " detailed": 3093,
    " study": 3094,
    " leak": 3095,
    " loaded": 3096,
    " benc": 3097,
    " roads": 3098,
    " completion": 3099,
    " ordinarily": 3100,
    " quanti": 3101,
    " damaged": 3102,
    " avo": 3103,
    "ially": 3104,
    " attachment": 3105,
    " operate": 3106,
    " vi": 3107,
    " true": 3108,
    "ield": 3109,
    " afford": 3110,
    " constant": 3111,
    " steel": 3112,
    "aves": 3113,
    " eight": 3114,
    " engines": 3115,
    "ung": 3116,
    " detaching": 3117,
    " sing": 3118,
    " space": 3119,
    " wear": 3120,
    " renewal": 3121,
    " bank": 3122,
    " ques": 3123,
    " occurred": 3124,
    " sil": 3125,
    " eye": 3126,
    " whate": 3127,
    " whatever": 3128,
    "iture": 3129,
    " zinc": 3130,
    "tiate": 3131,
    " tax": 3132,
    " resource": 3133,
    " ________________________________________________": 3134,
    " despatches": 3135,
    " metals": 3136,
    " consumed": 3137,
    " overseer": 3138,
    " lond": 3139,
    " london": 3140,
    " bengal": 3141,
    "1972": 3142,
    " 1961": 3143,
    " 46": 3144,
    " 66": 3145,
    " 70": 3146,
    " 75": 3147,
    " short": 3148,
    " respectively": 3149,
    " disused": 3150,
    " lying": 3151,
    " detected": 3152,
    " energy": 3153,
    " deb": 3154,
    "graph": 3155,
    " flood": 3156,
    " specific": 3157,
    " guides": 3158,
    " group": 3159,
    " loss": 3160,
    " break": 3161,
    " damage": 3162,
    " normal": 3163,
    " fourteen": 3164,
    " considers": 3165,
    "han": 3166,
    "xt": 3167,
    " included": 3168,
    " permits": 3169,
    " proceedings": 3170,
    " submission": 3171,
    " periodical": 3172,
    "ien": 3173,
    " passes": 3174,
    " lie": 3175,
    " unfit": 3176,
    " approve": 3177,
    " altered": 3178,
    "ts": 3179,
    " hazards": 3180,
    " industr": 3181,
    " industrial": 3182,
    " observ": 3183,
    " leakage": 3184,
    " sw": 3185,
    " gradi": 3186,
    " gradient": 3187,
    " adequately": 3188,
    " indicator": 3189,
    " gl": 3190,
    "ishers": 3191,
    "pping": 3192,
    " returned": 3193,
    " consultation": 3194,
    " suitably": 3195,
    " bench": 3196,
    " commenced": 3197,
    " hoist": 3198,
    " minimum": 3199,
    "wards": 3200,
    "utions": 3201,
    " raps": 3202,
    " supplied": 3203,
    " sk": 3204,
    " covering": 3205,
    "oratory": 3206,
    "grade": 3207,
    "where": 3208,
    "ef": 3209,
    " track": 3210,
    " organisation": 3211,
    " tren": 3212,
    " affect": 3213,
    " agree": 3214,
    " classification": 3215,
    "ertain": 3216,
    " increase": 3217,
    "ector": 3218,
    " prevention": 3219,
    " footw": 3220,
    "habil": 3221,
    " digit": 3222,
    " digitally": 3223,
    " online": 3224,
    " fines": 3225,
    " copper": 3226,
    " tin": 3227,
    " precious": 3228,
    " payments": 3229,
    " thous": 3230,
    " thousand": 3231,
    "clo": 3232,
    " village": 3233,
    " ##": 3234,
    "................": 3235,
    "committee": 3236,
    " awarded": 3237,
    " drinking": 3238,
    "1965": 3239,
    "197": 3240,
    " 193": 3241,
    " 77": 3242,
    " recommend": 3243,
    " were": 3244,
    " atmosphere": 3245,
    " machines": 3246,
    " util": 3247,
    " debris": 3248,
    " filling": 3249,
    "lines": 3250,
    " river": 3251,
    " wagon": 3252,
    " vehic": 3253,
    "uary": 3254,
    " ign": 3255,
    "ush": 3256,
    " simult": 3257,
    " simultaneous": 3258,
    " simultaneously": 3259,
    " later": 3260,
    " nomin": 3261,
    " nominated": 3262,
    " absent": 3263,
    " items": 3264,
    " confir": 3265,
    " important": 3266,
    " knowledge": 3267,
    " recogn": 3268,
    " recognised": 3269,
    " vision": 3270,
    "tip": 3271,
    "plicate": 3272,
    " cance": 3273,
    "lig": 3274,
    " inspectors": 3275,
    " finds": 3276,
    " ill": 3277,
    " diffic": 3278,
    " difficul": 3279,
    " engineers": 3280,
    " fresh": 3281,
    " chemical": 3282,
    "hen": 3283,
    "enses": 3284,
    " supervisory": 3285,
    " brat": 3286,
    " collected": 3287,
    " circu": 3288,
    "ibr": 3289,
    " fighting": 3290,
    " manholes": 3291,
    " stemming": 3292,
    " repe": 3293,
    " signalling": 3294,
    " bul": 3295,
    "atches": 3296,
    " projecting": 3297,
    " cannot": 3298,
    " moved": 3299,
    " prim": 3300,
    " stri": 3301,
    " indicated": 3302,
    "rib": 3303,
    " claimed": 3304,
    " interval": 3305,
    " orig": 3306,
    " original": 3307,
    " thinks": 3308,
    " sheaves": 3309,
    " arr": 3310,
    " arranged": 3311,
    " raise": 3312,
    " withdrawal": 3313,
    " specifying": 3314,
    " protected": 3315,
    " modifications": 3316,
    " vic": 3317,
    " vicin": 3318,
    " vicinity": 3319,
    " foot": 3320,
    " question": 3321,
    " handling": 3322,
    " detecting": 3323,
    "ories": 3324,
    " exped": 3325,
    " determination": 3326,
    "char": 3327,
    "ized": 3328,
    " deposits": 3329,
    " tail": 3330,
    " consumption": 3331,
    " pros": 3332,
    " applicant": 3333,
    " fem": 3334,
    "uk": 3335,
    " dispatches": 3336,
    " sales": 3337,
    " shothole": 3338,
    "provided": 3339,
    " women": 3340,
    " diplomas": 3341,
    " 1886": 3342,
    " na": 3343,
    " 2010": 3344,
    " 39": 3345,
    " recovered": 3346,
    " torch": 3347,
    " meaning": 3348,
    " fr": 3349,
    " hydra": 3350,
    " compress": 3351,
    " transmitting": 3352,
    " truc": 3353,
    "endent": 3354,
    " openings": 3355,
    " nin": 3356,
    " ninety": 3357,
    " extends": 3358,
    " readily": 3359,
    "illed": 3360,
    " resign": 3361,
    "hanb": 3362,
    " next": 3363,
    " reserves": 3364,
    " token": 3365,
    " bac": 3366,
    " bache": 3367,
    " bachel": 3368,
    " bachelor": 3369,
    " ment": 3370,
    " physical": 3371,
    " stip": 3372,
    " attempt": 3373,
    " fault": 3374,
    " performance": 3375,
    " medically": 3376,
    " difficulties": 3377,
    "isted": 3378,
    " rela": 3379,
    " relax": 3380,
    " night": 3381,
    " stability": 3382,
    " aid": 3383,
    " related": 3384,
    " tracing": 3385,
    "aint": 3386,
    " drawn": 3387,
    "arm": 3388,
    " satisfact": 3389,
    "cross": 3390,
    " tram": 3391,
    " accurate": 3392,
    " prepare": 3393,
    " por": 3394,
    "ened": 3395,
    " coupled": 3396,
    " audi": 3397,
    " warning": 3398,
    " locked": 3399,
    "uce": 3400,
    " then": 3401,
    " strong": 3402,
    "gs": 3403,
    " contact": 3404,
    " thereafter": 3405,
    " installations": 3406,
    " stren": 3407,
    " streng": 3408,
    " strength": 3409,
    " single": 3410,
    "inding": 3411,
    " displ": 3412,
    " house": 3413,
    " internal": 3414,
    " objects": 3415,
    " conveyors": 3416,
    " think": 3417,
    " buildings": 3418,
    " based": 3419,
    "cu": 3420,
    "ia": 3421,
    "mb": 3422,
    " need": 3423,
    " applies": 3424,
    " revision": 3425,
    " dressing": 3426,
    " ascertain": 3427,
    " san": 3428,
    " helmet": 3429,
    "duction": 3430,
    "development": 3431,
    " assur": 3432,
    " assurance": 3433,
    " ded": 3434,
    " concentrate": 3435,
    " must": 3436,
    " ____________________________": 3437,
    " mn": 3438,
    " caf": 3439,
    "plant": 3440,
    " expenses": 3441,
    " associates": 3442,
    "give": 3443,
    " 29b": 3444,
    " mica": 3445,
    " overtime": 3446,
    " west": 3447,
    " session": 3448,
    " 1994": 3449,
    " &": 3450,
    "444": 3451,
    ">>": 3452,
    " kkk": 3453,
    " kkkk": 3454,
    " 43": 3455,
    " sss": 3456,
    " ssss": 3457,
    " 192": 3458,
    " objection": 3459,
    " come": 3460,
    " individu": 3461,
    " gallery": 3462,
    " drift": 3463,
    "clos": 3464,
    " cub": 3465,
    " cubic": 3466,
    " inclined": 3467,
    " manufacturer": 3468,
    "soever": 3469,
    " discip": 3470,
    " highe": 3471,
    " highest": 3472,
    " thereto": 3473,
    " nam": 3474,
    " premature": 3475,
    " coupling": 3476,
    " becomes": 3477,
    "hereinafter": 3478,
    " among": 3479,
    " conf": 3480,
    " candidates": 3481,
    " duplicate": 3482,
    " satisfaction": 3483,
    " neg": 3484,
    " delin": 3485,
    " delinquent": 3486,
    "lled": 3487,
    " revo": 3488,
    " revoke": 3489,
    " unable": 3490,
    " consent": 3491,
    "iation": 3492,
    " requirement": 3493,
    "regate": 3494,
    " running": 3495,
    " minim": 3496,
    " procedures": 3497,
    " bi": 3498,
    "ring": 3499,
    " requisition": 3500,
    " gauge": 3501,
    " specifications": 3502,
    " temper": 3503,
    " temperature": 3504,
    " calibr": 3505,
    " airborne": 3506,
    " pip": 3507,
    " behind": 3508,
    " chains": 3509,
    " dumps": 3510,
    " secured": 3511,
    " withdrawn": 3512,
    " accumulation": 3513,
    " ens": 3514,
    " ensuring": 3515,
    " glass": 3516,
    "anging": 3517,
    " avoid": 3518,
    " riding": 3519,
    " altern": 3520,
    " approaching": 3521,
    "ired": 3522,
    " cler": 3523,
    " blind": 3524,
    " serial": 3525,
    "oining": 3526,
    " dispute": 3527,
    " galleries": 3528,
    "yed": 3529,
    " platforms": 3530,
    " scre": 3531,
    " replaced": 3532,
    " contains": 3533,
    " normally": 3534,
    " implementation": 3535,
    " paramet": 3536,
    "ieving": 3537,
    " erected": 3538,
    " wherein": 3539,
    " precaution": 3540,
    " monoxide": 3541,
    " trees": 3542,
    " quarry": 3543,
    " execution": 3544,
    " inspected": 3545,
    " charging": 3546,
    " dem": 3547,
    " flow": 3548,
    " cartridge": 3549,
    "rate": 3550,
    " postal": 3551,
    " tailings": 3552,
    " rehabil": 3553,
    "five": 3554,
    " expend": 3555,
    " expenditure": 3556,
    " reef": 3557,
    " bed": 3558,
    "rim": 3559,
    "ares": 3560,
    " dm": 3561,
    " dmf": 3562,
    " @": 3563,
    "ras": 3564,
    " phosp": 3565,
    " corporation": 3566,
    " mys": 3567,
    " mysore": 3568,
    "awarded": 3569,
    " associateship": 3570,
    " 1786": 3571,
    "1970": 3572,
    " 333": 3573,
    " 4444": 3574,
    " ah": 3575,
    " 42": 3576,
    "[[": 3577,
    " 61": 3578,
    " oct": 3579,
    " passing": 3580,
    " individuals": 3581,
    " ina": 3582,
    " march": 3583,
    " goaf": 3584,
    " hydraul": 3585,
    " hydraulic": 3586,
    " whatsoever": 3587,
    " pumping": 3588,
    "ushing": 3589,
    " socket": 3590,
    " termin": 3591,
    " obtaining": 3592,
    " causing": 3593,
    "lu": 3594,
    "ruption": 3595,
    " informed": 3596,
    " dhanb": 3597,
    " dhanbad": 3598,
    " disposed": 3599,
    " consideration": 3600,
    " disposal": 3601,
    " directly": 3602,
    "usted": 3603,
    " large": 3604,
    " gassiness": 3605,
    " aggregate": 3606,
    " dil": 3607,
    " risks": 3608,
    " various": 3609,
    " expo": 3610,
    " exposure": 3611,
    " spot": 3612,
    " tal": 3613,
    " performed": 3614,
    " undertake": 3615,
    " doors": 3616,
    " forty": 3617,
    "anges": 3618,
    " convenient": 3619,
    " substitute": 3620,
    " succession": 3621,
    " leaving": 3622,
    " extinguishers": 3623,
    " repairs": 3624,
    " portion": 3625,
    " fences": 3626,
    " descend": 3627,
    " star": 3628,
    " sound": 3629,
    " reduce": 3630,
    " dur": 3631,
    " abst": 3632,
    " abstract": 3633,
    " vii": 3634,
    " arrangement": 3635,
    "ders": 3636,
    " wall": 3637,
    " entrances": 3638,
    " respects": 3639,
    " ang": 3640,
    " turn": 3641,
    " lowest": 3642,
    " bell": 3643,
    " prominently": 3644,
    " article": 3645,
    " movement": 3646,
    " display": 3647,
    "dec": 3648,
    " contents": 3649,
    " longer": 3650,
    " controlled": 3651,
    " circuit": 3652,
    " spoil": 3653,
    "tr": 3654,
    " review": 3655,
    "ape": 3656,
    "techn": 3657,
    " workshop": 3658,
    " cement": 3659,
    " indicating": 3660,
    "mi": 3661,
    " chrom": 3662,
    " fuse": 3663,
    "umb": 3664,
    " cores": 3665,
    " rehabilitation": 3666,
    " progressive": 3667,
    " trust": 3668,
    " depart": 3669,
    " dest": 3670,
    " bid": 3671,
    " 1956": 3672,
    " whoever": 3673,
    " ____________________": 3674,
    " ________": 3675,
    " sal": 3676,
    " despatch": 3677,
    "2o": 3678,
    "products": 3679,
    " union": 3680,
    " signing": 3681,
    " disability": 3682,
    "sections": 3683,
    " latrines": 3684,
    "1994": 3685,
    " 11114444": 3686,
    " 57": 3687,
    " 59": 3688,
    " ;;": 3689,
    " 129": 3690,
    " 41": 3691,
    " 200": 3692,
    " 1955": 3693,
    " 300": 3694,
    " 72": 3695,
    "ff": 3696,
    " 144": 3697,
    " 123": 3698,
    " octo": 3699,
    " october": 3700,
    ".-(": 3701,
    " defin": 3702,
    " rank": 3703,
    " supervise": 3704,
    " front": 3705,
    " exists": 3706,
    " precinct": 3707,
    " precincts": 3708,
    " enclos": 3709,
    " capable": 3710,
    " develop": 3711,
    " nit": 3712,
    " princ": 3713,
    " princip": 3714,
    " december": 3715,
    " vehicle": 3716,
    " lawful": 3717,
    "iable": 3718,
    "bre": 3719,
    " fract": 3720,
    "utch": 3721,
    " cease": 3722,
    " delivered": 3723,
    " automatically": 3724,
    "paged": 3725,
    " receiving": 3726,
    "ientific": 3727,
    "amp": 3728,
    " suspend": 3729,
    " dismiss": 3730,
    " vol": 3731,
    " dealing": 3732,
    " workpl": 3733,
    "cep": 3734,
    " progra": 3735,
    " using": 3736,
    " pen": 3737,
    " penal": 3738,
    " imped": 3739,
    " situation": 3740,
    " barrier": 3741,
    " exercised": 3742,
    "ited": 3743,
    " standards": 3744,
    "sed": 3745,
    "crossing": 3746,
    " pipes": 3747,
    " swit": 3748,
    " ascending": 3749,
    " inadvertently": 3750,
    " tracings": 3751,
    " recapping": 3752,
    " specially": 3753,
    "ening": 3754,
    " replace": 3755,
    "ils": 3756,
    " poly": 3757,
    " fil": 3758,
    " earlier": 3759,
    " plot": 3760,
    " tank": 3761,
    "tted": 3762,
    " adjoining": 3763,
    "dies": 3764,
    " built": 3765,
    " recover": 3766,
    "cast": 3767,
    " eigh": 3768,
    " pulleys": 3769,
    "que": 3770,
    " equipp": 3771,
    " equipped": 3772,
    "ese": 3773,
    " hook": 3774,
    " contrivances": 3775,
    " accidental": 3776,
    " wires": 3777,
    " round": 3778,
    " tests": 3779,
    " exter": 3780,
    " external": 3781,
    " greater": 3782,
    "whe": 3783,
    " parameters": 3784,
    " stacked": 3785,
    " admin": 3786,
    " understo": 3787,
    " understood": 3788,
    " opp": 3789,
    " investigation": 3790,
    " heap": 3791,
    " flu": 3792,
    " ox": 3793,
    " oxy": 3794,
    " oxygen": 3795,
    " semi": 3796,
    " mix": 3797,
    " periods": 3798,
    " expedient": 3799,
    " shotfiring": 3800,
    " completed": 3801,
    " misce": 3802,
    " miscell": 3803,
    " miscellaneous": 3804,
    " footwear": 3805,
    " holders": 3806,
    " sum": 3807,
    " industry": 3808,
    " comput": 3809,
    " bidding": 3810,
    " wit": 3811,
    " witness": 3812,
    "mineral": 3813,
    " male": 3814,
    "mention": 3815,
    " compared": 3816,
    " lumps": 3817,
    " activity": 3818,
    " jan": 3819,
    "river": 3820,
    " compe": 3821,
    "isc": 3822,
    " fund": 3823,
    " food": 3824,
    " thing": 3825,
    " weekly": 3826,
    " compensatory": 3827,
    " 190": 3828,
    "555": 3829,
    "666": 3830,
    "::": 3831,
    " 9999": 3832,
    " 11110000": 3833,
    " 1111111": 3834,
    " 11112222": 3835,
    " 11113333": 3836,
    " 11115555": 3837,
    " 11116666": 3838,
    " 11117777": 3839,
    "jj": 3840,
    " qqq": 3841,
    " qqqq": 3842,
    "uu": 3843,
    " 53": 3844,
    " qq": 3845,
    " recommendations": 3846,
    " exh": 3847,
    " exhaus": 3848,
    " lign": 3849,
    " lignite": 3850,
    " apr": 3851,
    " emission": 3852,
    "wall": 3853,
    "lying": 3854,
    " suspended": 3855,
    " indep": 3856,
    " independent": 3857,
    " reopening": 3858,
    " leaves": 3859,
    " names": 3860,
    " outbre": 3861,
    " outbreak": 3862,
    " bur": 3863,
    " fracture": 3864,
    " death": 3865,
    "eration": 3866,
    " request": 3867,
    " minutes": 3868,
    " confidential": 3869,
    " notes": 3870,
    " fig": 3871,
    "ceeding": 3872,
    " entrusted": 3873,
    " surveys": 3874,
    " satisfy": 3875,
    " fires": 3876,
    " products": 3877,
    " thre": 3878,
    " proceeding": 3879,
    " identification": 3880,
    " hard": 3881,
    "saf": 3882,
    "oper": 3883,
    " attention": 3884,
    " common": 3885,
    " sources": 3886,
    "acy": 3887,
    " mot": 3888,
    " measurements": 3889,
    " measurement": 3890,
    " cleaning": 3891,
    "block": 3892,
    "ays": 3893,
    " benches": 3894,
    "row": 3895,
    " assistants": 3896,
    " rooms": 3897,
    "aling": 3898,
    " occas": 3899,
    " occasion": 3900,
    " edge": 3901,
    " catches": 3902,
    " keps": 3903,
    " audible": 3904,
    " adjust": 3905,
    " enters": 3906,
    "nel": 3907,
    "ribution": 3908,
    " joint": 3909,
    " eas": 3910,
    " combined": 3911,
    " lines": 3912,
    " field": 3913,
    " constantly": 3914,
    " concre": 3915,
    " concrete": 3916,
    " angle": 3917,
    " overw": 3918,
    " quality": 3919,
    " disconn": 3920,
    " capp": 3921,
    " laboratory": 3922,
    "oles": 3923,
    " towards": 3924,
    " slo": 3925,
    " props": 3926,
    " modify": 3927,
    " overh": 3928,
    " formation": 3929,
    " agreement": 3930,
    "alance": 3931,
    " according": 3932,
    "bo": 3933,
    " portal": 3934,
    " systematic": 3935,
    " job": 3936,
    "wor": 3937,
    " cas": 3938,
    " exclusive": 3939,
    " crane": 3940,
    " officers": 3941,
    " incor": 3942,
    "por": 3943,
    " incur": 3944,
    " incurred": 3945,
    " pending": 3946,
    " constit": 3947,
    "con": 3948,
    " demand": 3949,
    " strike": 3950,
    "every": 3951,
    " tung": 3952,
    " tungst": 3953,
    " tungsten": 3954,
    " prosecution": 3955,
    " department": 3956,
    " parli": 3957,
    " parlia": 3958,
    " parliament": 3959,
    " conv": 3960,
    " convic": 3961,
    " compound": 3962,
    " ________________________________________________________________": 3963,
    " nmet": 3964,
    " chromite": 3965,
    " (*": 3966,
    "decrease": 3967,
    " cr2o": 3968,
    " cr2o3": 3969,
    " aluminium": 3970,
    " rights": 3971,
    ")................": 3972,
    " institutions": 3973,
    " ltr": 3974,
    " ltrs": 3975,
    " dia": 3976,
    " appren": 3977,
    " polytechn": 3978,
    " polytechnic": 3979,
    " students": 3980,
    " licentiate": 3981,
    " bihar": 3982,
    " overseers": 3983,
    " committed": 3984,
    "herself": 3985,
    "shrim": 3986,
    "shrimati": 3987,
    "--------------------------------": 3988,
    " chargeable": 3989,
    "yy": 3990,
    " 198": 3991,
    " 3333": 3992,
    " 5555": 3993,
    " 6666": 3994,
    " ddd": 3995,
    " dddd": 3996,
    " 11118888": 3997,
    " 11119999": 3998,
    " ee": 3999,
    " 22220000": 4000,
    " 22221111": 4001,
    " 2222222": 4002,
    " 22223333": 4003,
    " 22224444": 4004,
    " 22225555": 4005,
    " 49": 4006,
    " publication": 4007,
    " manufactured": 4008,
    " forming": 4009,
    " attained": 4010,
    " contractor": 4011,
    " deep": 4012,
    " accessible": 4013,
    "bye": 4014,
    " april": 4015,
    " associated": 4016,
    " principal": 4017,
    " discipline": 4018,
    " 30th": 4019,
    " geo": 4020,
    " technology": 4021,
    " words": 4022,
    " inr": 4023,
    " inrush": 4024,
    " compressed": 4025,
    " letter": 4026,
    " caused": 4027,
    " resignation": 4028,
    "clause": 4029,
    " elig": 4030,
    " even": 4031,
    " advance": 4032,
    " attending": 4033,
    " endors": 4034,
    " endorsed": 4035,
    "indi": 4036,
    " classes": 4037,
    " scientific": 4038,
    " driving": 4039,
    " stipulate": 4040,
    " determine": 4041,
    " figures": 4042,
    " suc": 4043,
    " assisted": 4044,
    "ienced": 4045,
    "compl": 4046,
    " prob": 4047,
    " reporting": 4048,
    " impede": 4049,
    " faith": 4050,
    " previously": 4051,
    " notic": 4052,
    " noticed": 4053,
    " wherever": 4054,
    " codes": 4055,
    " active": 4056,
    " directed": 4057,
    " motor": 4058,
    " consp": 4059,
    " conspic": 4060,
    " conspicuous": 4061,
    " sufficiently": 4062,
    " harm": 4063,
    " calibrated": 4064,
    " function": 4065,
    " dies": 4066,
    " drag": 4067,
    " stemmed": 4068,
    " 189": 4069,
    " uncl": 4070,
    " drums": 4071,
    "ob": 4072,
    " alternative": 4073,
    " clerk": 4074,
    "ibly": 4075,
    " dumpers": 4076,
    " subsidence": 4077,
    " longitu": 4078,
    " distribution": 4079,
    " easily": 4080,
    "lour": 4081,
    " impose": 4082,
    " upd": 4083,
    " duration": 4084,
    " ladders": 4085,
    " eighteen": 4086,
    " fittings": 4087,
    " brea": 4088,
    " always": 4089,
    " become": 4090,
    " mill": 4091,
    " core": 4092,
    " washed": 4093,
    " bran": 4094,
    " slope": 4095,
    " lay": 4096,
    " impro": 4097,
    " pits": 4098,
    " reclam": 4099,
    " reclamation": 4100,
    " frame": 4101,
    " restrict": 4102,
    " isolate": 4103,
    " sket": 4104,
    " bat": 4105,
    "onomic": 4106,
    " involving": 4107,
    " dry": 4108,
    " resist": 4109,
    "nings": 4110,
    " collection": 4111,
    " efficiently": 4112,
    " proposal": 4113,
    " electrically": 4114,
    " parti": 4115,
    " yard": 4116,
    " imported": 4117,
    "logra": 4118,
    "charged": 4119,
    " plug": 4120,
    " radi": 4121,
    "encies": 4122,
    "ibility": 4123,
    " incorpor": 4124,
    " disturbed": 4125,
    " appellant": 4126,
    "tile": 4127,
    " vein": 4128,
    " metallur": 4129,
    " metallurg": 4130,
    " py": 4131,
    " compan": 4132,
    " companies": 4133,
    " opport": 4134,
    " opportun": 4135,
    " opportunity": 4136,
    " female": 4137,
    " factory": 4138,
    "production": 4139,
    " mangan": 4140,
    " manganese": 4141,
    "40": 4142,
    " capital": 4143,
    " kw": 4144,
    " kwh": 4145,
    " rs": 4146,
    " taluk": 4147,
    " taluka": 4148,
    " passport": 4149,
    "],": 4150,
    "****": 4151,
    " .(": 4152,
    " allowance": 4153,
    " sex": 4154,
    " rates": 4155,
    " latrine": 4156,
    "formity": 4157,
    ";]": 4158,
    "195": 4159,
    " ,,": 4160,
    " ,-": 4161,
    " 11111111": 4162,
    "??": 4163,
    " 22222222": 4164,
    " '": 4165,
    " 64": 4166,
    "25": 4167,
    " 78": 4168,
    "35": 4169,
    " fi": 4170,
    " 135": 4171,
    "lim": 4172,
    " tit": 4173,
    "itions": 4174,
    " fut": 4175,
    " future": 4176,
    "cont": 4177,
    " actu": 4178,
    "excluding": 4179,
    " drills": 4180,
    " boil": 4181,
    " constitute": 4182,
    "wing": 4183,
    " railways": 4184,
    " stre": 4185,
    " known": 4186,
    " ventilated": 4187,
    " stating": 4188,
    " transferred": 4189,
    " terminated": 4190,
    " ignition": 4191,
    " irruption": 4192,
    " breakage": 4193,
    " bearing": 4194,
    " burn": 4195,
    " transmission": 4196,
    " decided": 4197,
    " residence": 4198,
    " circulation": 4199,
    " pap": 4200,
    " papers": 4201,
    " generally": 4202,
    " sanc": 4203,
    " mental": 4204,
    "iter": 4205,
    " guil": 4206,
    " guilty": 4207,
    " confer": 4208,
    " accomm": 4209,
    " accommod": 4210,
    " kilom": 4211,
    " kilomet": 4212,
    " enforce": 4213,
    "compliance": 4214,
    "rehen": 4215,
    " clothing": 4216,
    " suffer": 4217,
    " dang": 4218,
    " dangers": 4219,
    " identified": 4220,
    " establishment": 4221,
    "ey": 4222,
    " acts": 4223,
    " best": 4224,
    " recti": 4225,
    "ands": 4226,
    "leg": 4227,
    " photo": 4228,
    " photograph": 4229,
    " causes": 4230,
    " convers": 4231,
    " program": 4232,
    " observance": 4233,
    " fans": 4234,
    " hum": 4235,
    " boards": 4236,
    " old": 4237,
    " stat": 4238,
    " statut": 4239,
    " statutory": 4240,
    " inclines": 4241,
    " attendant": 4242,
    " deficiency": 4243,
    " setting": 4244,
    " glasses": 4245,
    " signaling": 4246,
    " fast": 4247,
    " drin": 4248,
    "itted": 4249,
    "itting": 4250,
    " cab": 4251,
    "alk": 4252,
    " lub": 4253,
    " lubric": 4254,
    " units": 4255,
    " factor": 4256,
    " restrictions": 4257,
    " driven": 4258,
    " throw": 4259,
    " colour": 4260,
    " key": 4261,
    " num": 4262,
    " arrear": 4263,
    " ascend": 4264,
    " mason": 4265,
    " masonry": 4266,
    " alterations": 4267,
    " reached": 4268,
    "hering": 4269,
    "tained": 4270,
    " cappel": 4271,
    " piec": 4272,
    " preferred": 4273,
    "len": 4274,
    "coup": 4275,
    " lar": 4276,
    "ture": 4277,
    " buf": 4278,
    " buffer": 4279,
    " slop": 4280,
    " guards": 4281,
    " fencing": 4282,
    " dates": 4283,
    " rise": 4284,
    " insu": 4285,
    " insuf": 4286,
    " insufficient": 4287,
    " occupied": 4288,
    " trenches": 4289,
    " confirm": 4290,
    " subse": 4291,
    " engl": 4292,
    " tight": 4293,
    " seriously": 4294,
    "rescu": 4295,
    " sol": 4296,
    " silica": 4297,
    " selected": 4298,
    " respirators": 4299,
    "loc": 4300,
    " unlo": 4301,
    " unloading": 4302,
    " disp": 4303,
    "opening": 4304,
    " pet": 4305,
    " petro": 4306,
    " thumb": 4307,
    " priming": 4308,
    "test": 4309,
    "testing": 4310,
    " relieving": 4311,
    " miners": 4312,
    " fat": 4313,
    " poll": 4314,
    " intimation": 4315,
    " satisfactory": 4316,
    " valu": 4317,
    "anite": 4318,
    " july": 4319,
    "odes": 4320,
    " metallurgical": 4321,
    " trade": 4322,
    " taxes": 4323,
    " dispatched": 4324,
    " stope": 4325,
    " offen": 4326,
    " offender": 4327,
    " prescribe": 4328,
    " email": 4329,
    " ____________________________________________________________________": 4330,
    " tick": 4331,
    "hect": 4332,
    "hectares": 4333,
    "number": 4334,
    "tonn": 4335,
    " salary": 4336,
    " pulver": 4337,
    " alumina": 4338,
    "estone": 4339,
    " assets": 4340,
    " balance": 4341,
    " ***": 4342,
    " arrears": 4343,
    " pan": 4344,
    " january": 4345,
    "driver": 4346,
    " constitution": 4347,
    " managing": 4348,
    "iscons": 4349,
    " technological": 4350,
    " lce": 4351,
    " relay": 4352,
    " hearing": 4353,
    " subsection": 4354,
    " generality": 4355,
    " existence": 4356,
    " ked": 4357,
    " vest": 4358,
    " 166": 4359,
    " 67": 4360,
    " 76": 4361,
    "))))": 4362,
    " 112": 4363,
    " ggg": 4364,
    " gggg": 4365,
    " 85": 4366,
    " 138": 4367,
    " 130": 4368,
    " 167": 4369,
    " vide": 4370,
    "iting": 4371,
    " thereby": 4372,
    " substances": 4373,
    " vested": 4374,
    " maintaining": 4375,
    " unused": 4376,
    "meas": 4377,
    " instruction": 4378,
    " portable": 4379,
    " developed": 4380,
    " sen": 4381,
    " senior": 4382,
    " jun": 4383,
    " sept": 4384,
    " september": 4385,
    " truck": 4386,
    " feat": 4387,
    " features": 4388,
    "br": 4389,
    " partner": 4390,
    " hereinafter": 4391,
    " pulley": 4392,
    " ce": 4393,
    " vacanc": 4394,
    " eligible": 4395,
    " receive": 4396,
    "acted": 4397,
    " irre": 4398,
    " irrespective": 4399,
    " appearing": 4400,
    " sanction": 4401,
    " efficiency": 4402,
    " lost": 4403,
    " neglig": 4404,
    " finding": 4405,
    " sev": 4406,
    " seventy": 4407,
    " concerning": 4408,
    " variance": 4409,
    " succeeding": 4410,
    "abilities": 4411,
    " residential": 4412,
    " variation": 4413,
    " mechanised": 4414,
    " preparing": 4415,
    " countersign": 4416,
    " systems": 4417,
    " feas": 4418,
    " workplace": 4419,
    " worker": 4420,
    " deploy": 4421,
    " threat": 4422,
    " preventing": 4423,
    " electronic": 4424,
    " underst": 4425,
    " visit": 4426,
    "ries": 4427,
    " prop": 4428,
    " conversant": 4429,
    " programme": 4430,
    " amp": 4431,
    " unus": 4432,
    " quo": 4433,
    " changes": 4434,
    " environmental": 4435,
    " barriers": 4436,
    " brattice": 4437,
    "was": 4438,
    " dressed": 4439,
    " acquaint": 4440,
    " continuously": 4441,
    " bulk": 4442,
    " suspect": 4443,
    " descending": 4444,
    " intox": 4445,
    " crossing": 4446,
    "cepted": 4447,
    " completely": 4448,
    "ants": 4449,
    " switch": 4450,
    " revers": 4451,
    " mer": 4452,
    " proved": 4453,
    " 197": 4454,
    " checked": 4455,
    " numbers": 4456,
    " sole": 4457,
    " equally": 4458,
    " wide": 4459,
    " additions": 4460,
    "shaft": 4461,
    " rap": 4462,
    "we": 4463,
    " plate": 4464,
    " shows": 4465,
    " squ": 4466,
    " repairing": 4467,
    " adhering": 4468,
    " breaking": 4469,
    " capping": 4470,
    "opted": 4471,
    " grease": 4472,
    "pass": 4473,
    " grav": 4474,
    " telephonic": 4475,
    " branch": 4476,
    " scra": 4477,
    " forms": 4478,
    "ieve": 4479,
    " soil": 4480,
    " enforced": 4481,
    " crushing": 4482,
    " displayed": 4483,
    "uted": 4484,
    " english": 4485,
    " pane": 4486,
    " panel": 4487,
    " footpat": 4488,
    " footpath": 4489,
    " detection": 4490,
    "proof": 4491,
    " combustible": 4492,
    "ighted": 4493,
    " trained": 4494,
    " dioxide": 4495,
    " exempted": 4496,
    "person": 4497,
    "iles": 4498,
    " exceeded": 4499,
    " resumed": 4500,
    " naturally": 4501,
    " weight": 4502,
    " interference": 4503,
    "ique": 4504,
    " sear": 4505,
    " searched": 4506,
    " protect": 4507,
    " ammon": 4508,
    " ammonium": 4509,
    " nitrate": 4510,
    " fue": 4511,
    " fuel": 4512,
    " kilogra": 4513,
    " jud": 4514,
    "fe": 4515,
    " coun": 4516,
    "economic": 4517,
    " annex": 4518,
    " accounts": 4519,
    " wise": 4520,
    " il": 4521,
    " pyrit": 4522,
    "prec": 4523,
    "precious": 4524,
    " stocking": 4525,
    " brief": 4526,
    " governments": 4527,
    "geolog": 4528,
    " ________________________________": 4529,
    "avail": 4530,
    "general": 4531,
    "wages": 4532,
    "tonne": 4533,
    " bau": 4534,
    " baux": 4535,
    " bauxite": 4536,
    " qty": 4537,
    "ublic": 4538,
    " sector": 4539,
    " deprec": 4540,
    " loan": 4541,
    " m3": 4542,
    " sheet": 4543,
    "mination": 4544,
    " amine": 4545,
    " forman": 4546,
    " undermanager": 4547,
    "whether": 4548,
    "uses": 4549,
    "name": 4550,
    "lete": 4551,
    " earnings": 4552,
    " attendances": 4553,
    " approves": 4554,
    "isconsin": 4555,
    "itary": 4556,
    " courts": 4557,
    "pm": 4558,
    " 69": 4559,
    " 121": 4560,
    " ****": 4561,
    "xi": 4562,
    " bbb": 4563,
    " bbbb": 4564,
    " 120": 4565,
    " 2000": 4566,
    " 1000": 4567,
    " zzz": 4568,
    " zzzz": 4569,
    " 71": 4570,
    " 63": 4571,
    " 250": 4572,
    " 73": 4573,
    " 90": 4574,
    "21": 4575,
    " 169": 4576,
    " 153": 4577,
    " !": 4578,
    " 500": 4579,
    "istry": 4580,
    " propos": 4581,
    " proposes": 4582,
    " sug": 4583,
    " prelim": 4584,
    " preliminary": 4585,
    " title": 4586,
    "cing": 4587,
    " inacc": 4588,
    " exec": 4589,
    " temporarily": 4590,
    " proof": 4591,
    " fum": 4592,
    " drilled": 4593,
    " ons": 4594,
    " onsetter": 4595,
    " june": 4596,
    " extending": 4597,
    " leading": 4598,
    " expression": 4599,
    " herein": 4600,
    "unction": 4601,
    " share": 4602,
    " priv": 4603,
    " appearance": 4604,
    " clutch": 4605,
    " followed": 4606,
    " planning": 4607,
    " successor": 4608,
    " serve": 4609,
    " meetings": 4610,
    " adjour": 4611,
    "tes": 4612,
    "era": 4613,
    " amb": 4614,
    " deaf": 4615,
    " deafness": 4616,
    " representation": 4617,
    " cancel": 4618,
    " relate": 4619,
    " illness": 4620,
    " accommodation": 4621,
    " promo": 4622,
    " consisting": 4623,
    " interests": 4624,
    " elim": 4625,
    " spread": 4626,
    " evac": 4627,
    " evacu": 4628,
    " ensured": 4629,
    " hazard": 4630,
    "eases": 4631,
    " incident": 4632,
    " incons": 4633,
    " inconsist": 4634,
    " inconsistent": 4635,
    " around": 4636,
    " unsaf": 4637,
    " unsafe": 4638,
    "mmes": 4639,
    "ison": 4640,
    " unusual": 4641,
    " brattices": 4642,
    " diesel": 4643,
    " tracks": 4644,
    " spr": 4645,
    "els": 4646,
    " checking": 4647,
    " wooden": 4648,
    " ways": 4649,
    " quantities": 4650,
    " hour": 4651,
    " sust": 4652,
    " sustain": 4653,
    " trial": 4654,
    " repeated": 4655,
    " handle": 4656,
    " whil": 4657,
    " whilst": 4658,
    " fastened": 4659,
    " drink": 4660,
    " lights": 4661,
    " accompany": 4662,
    " issuing": 4663,
    " tipp": 4664,
    " walk": 4665,
    " might": 4666,
    "off": 4667,
    " structures": 4668,
    "cour": 4669,
    " roll": 4670,
    " dy": 4671,
    " disputed": 4672,
    " leasehold": 4673,
    " lake": 4674,
    " disturbance": 4675,
    " apart": 4676,
    " permanently": 4677,
    " instru": 4678,
    " instrument": 4679,
    " numbered": 4680,
    " updated": 4681,
    " recoverable": 4682,
    " wire": 4683,
    " lag": 4684,
    " accidentally": 4685,
    "power": 4686,
    " spir": 4687,
    " fric": 4688,
    " friction": 4689,
    " distinct": 4690,
    " acting": 4691,
    " excessive": 4692,
    " skip": 4693,
    "hook": 4694,
    " calculated": 4695,
    " hist": 4696,
    " centi": 4697,
    " centigrade": 4698,
    " fib": 4699,
    "aled": 4700,
    " refitted": 4701,
    " remedied": 4702,
    " adult": 4703,
    " gravity": 4704,
    " guide": 4705,
    "coupled": 4706,
    " grounds": 4707,
    " forw": 4708,
    " airways": 4709,
    " walls": 4710,
    " dumped": 4711,
    "aug": 4712,
    " tramline": 4713,
    " ach": 4714,
    " intro": 4715,
    " erection": 4716,
    " rein": 4717,
    " remedy": 4718,
    " appears": 4719,
    " contraventions": 4720,
    " oblig": 4721,
    " express": 4722,
    " batter": 4723,
    " battery": 4724,
    "tially": 4725,
    " trench": 4726,
    " articles": 4727,
    " remote": 4728,
    " personnel": 4729,
    " esc": 4730,
    " escape": 4731,
    " dividing": 4732,
    "persons": 4733,
    " failing": 4734,
    "inf": 4735,
    " screening": 4736,
    " pat": 4737,
    " mixture": 4738,
    " party": 4739,
    "now": 4740,
    "water": 4741,
    " bir": 4742,
    " enclosed": 4743,
    " knowing": 4744,
    " doing": 4745,
    "'s": 4746,
    " incorporated": 4747,
    " sketch": 4748,
    "two": 4749,
    " pollution": 4750,
    " stu": 4751,
    " enh": 4752,
    "within": 4753,
    " lode": 4754,
    " stoped": 4755,
    "ural": 4756,
    " fal": 4757,
    " false": 4758,
    " invo": 4759,
    " reject": 4760,
    " science": 4761,
    " tender": 4762,
    " schedul": 4763,
    "notice": 4764,
    " _____________": 4765,
    " lack": 4766,
    " _________": 4767,
    " pulverized": 4768,
    " tab": 4769,
    " tables": 4770,
    " limestone": 4771,
    " phosph": 4772,
    " concentrator": 4773,
    " (#": 4774,
    " 20____": 4775,
    " police": 4776,
    "amend": 4777,
    " apprentice": 4778,
    " viv": 4779,
    " viva": 4780,
    " voce": 4781,
    " centimetres": 4782,
    " sn": 4783,
    "2a": 4784,
    " silver": 4785,
    "hours": 4786,
    " surname": 4787,
    " 1950": 4788,
    "odh": 4789,
    " oriss": 4790,
    " orissa": 4791,
    "ara": 4792,
    " bang": 4793,
    " pra": 4794,
    " prades": 4795,
    " pradesh": 4796,
    " mad": 4797,
    "jab": 4798,
    " committe": 4799,
    " committees": 4800,
    " legal": 4801,
    " traine": 4802,
    " abstracts": 4803,
    " cogn": 4804,
    " cogniz": 4805,
    " offences": 4806,
    " 1948": 4807,
    " renumber": 4808,
    " renumbered": 4809,
    " *]": 4810,
    " annexure": 4811,
    " organic": 4812,
    " skin": 4813,
    " 10b": 4814,
    " competi": 4815,
    " competitive": 4816,
    "anium": 4817,
    " 2017": 4818,
    "agra": 4819,
    "188": 4820,
    "1884": 4821,
    " ~": 4822,
    " ie": 4823,
    ",,,,": 4824,
    "500": 4825,
    "-/": 4826,
    " 109": 4827,
    " 54": 4828,
    " [[[": 4829,
    " [[[[": 4830,
    " 84": 4831,
    " 240": 4832,
    " 145": 4833,
    " 116": 4834,
    " --": 4835,
    " 139": 4836,
    " 20th": 4837,
    " definitions": 4838,
    "ext": 4839,
    " whol": 4840,
    " wholly": 4841,
    "aceous": 4842,
    " market": 4843,
    " partly": 4844,
    " successive": 4845,
    "measures": 4846,
    " actually": 4847,
    " combination": 4848,
    " incharge": 4849,
    " pipeline": 4850,
    "most": 4851,
    " stream": 4852,
    " communicate": 4853,
    " febr": 4854,
    " february": 4855,
    " discontinue": 4856,
    "fiable": 4857,
    " burst": 4858,
    "gear": 4859,
    "ential": 4860,
    " spar": 4861,
    " generation": 4862,
    " vacancy": 4863,
    " continued": 4864,
    " remun": 4865,
    " remuneration": 4866,
    " intimating": 4867,
    " urg": 4868,
    " preside": 4869,
    "sel": 4870,
    " elected": 4871,
    "pose": 4872,
    " decisions": 4873,
    " regarded": 4874,
    " granting": 4875,
    " ambul": 4876,
    " ambulance": 4877,
    "ified": 4878,
    " secondary": 4879,
    " medic": 4880,
    " infir": 4881,
    " infirmity": 4882,
    " repute": 4883,
    " err": 4884,
    " possesses": 4885,
    " proves": 4886,
    " deliver": 4887,
    " retain": 4888,
    "usion": 4889,
    " findings": 4890,
    "sement": 4891,
    " ans": 4892,
    " handled": 4893,
    " able": 4894,
    " liabilities": 4895,
    " frequent": 4896,
    " consists": 4897,
    " districts": 4898,
    " leve": 4899,
    " levell": 4900,
    " levellings": 4901,
    "ize": 4902,
    " zones": 4903,
    " detect": 4904,
    " response": 4905,
    " probable": 4906,
    " diseases": 4907,
    " obstruct": 4908,
    " complying": 4909,
    " recording": 4910,
    "night": 4911,
    " intimate": 4912,
    " complaint": 4913,
    "furn": 4914,
    "ru": 4915,
    "aly": 4916,
    "aches": 4917,
    " humid": 4918,
    " humidity": 4919,
    " harmful": 4920,
    " spra": 4921,
    " packed": 4922,
    "ags": 4923,
    " often": 4924,
    " extension": 4925,
    " observe": 4926,
    "adings": 4927,
    "idy": 4928,
    " going": 4929,
    " accuracy": 4930,
    " arise": 4931,
    " starting": 4932,
    " assured": 4933,
    " intoxic": 4934,
    " engin": 4935,
    " started": 4936,
    "ian": 4937,
    " disco": 4938,
    " cabin": 4939,
    "aces": 4940,
    " operators": 4941,
    " machineries": 4942,
    " excluding": 4943,
    " trucks": 4944,
    "xim": 4945,
    " dumper": 4946,
    "ractions": 4947,
    " enough": 4948,
    " clearance": 4949,
    " feature": 4950,
    "course": 4951,
    " charact": 4952,
    " character": 4953,
    " boring": 4954,
    " dotted": 4955,
    " longitud": 4956,
    " longitudinal": 4957,
    "fighting": 4958,
    " outline": 4959,
    " withst": 4960,
    " withstand": 4961,
    " contour": 4962,
    " bon": 4963,
    " ard": 4964,
    " arduous": 4965,
    " tel": 4966,
    " telec": 4967,
    " telecomm": 4968,
    " telecommun": 4969,
    " telecommunication": 4970,
    " link": 4971,
    "page": 4972,
    " sump": 4973,
    " periodic": 4974,
    " supervisor": 4975,
    " unduly": 4976,
    " rig": 4977,
    "ave": 4978,
    " eighty": 4979,
    " 25th": 4980,
    " stra": 4981,
    " keeping": 4982,
    " replacement": 4983,
    "ners": 4984,
    "be": 4985,
    " overwinding": 4986,
    " square": 4987,
    " mul": 4988,
    " slow": 4989,
    " slowly": 4990,
    " scaff": 4991,
    " scaffold": 4992,
    " visible": 4993,
    " obvi": 4994,
    " obviate": 4995,
    " static": 4996,
    "obtained": 4997,
    " mode": 4998,
    " adopted": 4999,
    " weak": 5000,
    " males": 5001,
    "ported": 5002,
    " forward": 5003,
    " afforded": 5004,
    " larger": 5005,
    "contro": 5006,
    " cord": 5007,
    " formulate": 5008,
    " seeking": 5009,
    "tives": 5010,
    " minimise": 5011,
    " polic": 5012,
    " improve": 5013,
    " allu": 5014,
    " benched": 5015,
    " compact": 5016,
    " recl": 5017,
    " depill": 5018,
    " depillaring": 5019,
    " mu": 5020,
    "rative": 5021,
    " reinfor": 5022,
    " legibly": 5023,
    " sanitation": 5024,
    " continues": 5025,
    " ladderway": 5026,
    " stages": 5027,
    " till": 5028,
    " naked": 5029,
    " her": 5030,
    " lighted": 5031,
    " cuttings": 5032,
    " wel": 5033,
    " welding": 5034,
    " dams": 5035,
    " isolation": 5036,
    " sealing": 5037,
    "rev": 5038,
    " modified": 5039,
    " poison": 5040,
    "board": 5041,
    " sampled": 5042,
    " categories": 5043,
    "artz": 5044,
    " subsequent": 5045,
    " frequ": 5046,
    " designated": 5047,
    " divided": 5048,
    " lieu": 5049,
    " wat": 5050,
    " rain": 5051,
    "bear": 5052,
    "bearing": 5053,
    " producing": 5054,
    " located": 5055,
    " willfully": 5056,
    " licens": 5057,
    " impression": 5058,
    " preserved": 5059,
    " retained": 5060,
    " selection": 5061,
    " cri": 5062,
    "ome": 5063,
    " radius": 5064,
    "ulty": 5065,
    " prefer": 5066,
    " help": 5067,
    " prohibited": 5068,
    " fatal": 5069,
    " aggr": 5070,
    " aggrieved": 5071,
    " raj": 5072,
    " uneconomic": 5073,
    "dro": 5074,
    " studies": 5075,
    " lak": 5076,
    " lakh": 5077,
    " enhance": 5078,
    "hs": 5079,
    "dom": 5080,
    " sustainable": 5081,
    " rating": 5082,
    " verification": 5083,
    " exports": 5084,
    " purch": 5085,
    " deduction": 5086,
    " freight": 5087,
    " destination": 5088,
    " destro": 5089,
    " destroyed": 5090,
    " quoted": 5091,
    " update": 5092,
    " scheduled": 5093,
    "agpur": 5094,
    " contravenes": 5095,
    " aer": 5096,
    " doc": 5097,
    " documents": 5098,
    " unique": 5099,
    "geologist": 5100,
    " ________________________": 5101,
    "availability": 5102,
    " bottlen": 5103,
    " bottlenec": 5104,
    " bottleneck": 5105,
    "pit": 5106,
    " 1988": 5107,
    " lockout": 5108,
    "atite": 5109,
    " deductions": 5110,
    " computation": 5111,
    "ignee": 5112,
    " abras": 5113,
    " graph": 5114,
    " graphite": 5115,
    " phosphate": 5116,
    " polished": 5117,
    "osen": 5118,
    "abo": 5119,
    "above": 5120,
    "sub": 5121,
    "bore": 5122,
    " -----": 5123,
    " occupation": 5124,
    "------------": 5125,
    " crude": 5126,
    "amendment": 5127,
    " cam": 5128,
    " underg": 5129,
    " undergone": 5130,
    " accepted": 5131,
    " convicted": 5132,
    " 1908": 5133,
    " crim": 5134,
    " criminal": 5135,
    " soc": 5136,
    " workpersons": 5137,
    "irds": 5138,
    " os": 5139,
    " ________________________________________________________________________________": 5140,
    " ____________________________________________________________________________________": 5141,
    " delete": 5142,
    "period": 5143,
    " suffering": 5144,
    "ering": 5145,
    "ham": 5146,
    " wisconsin": 5147,
    "dip": 5148,
    "diplom": 5149,
    "diploma": 5150,
    " sanitary": 5151,
    "ier": 5152,
    " 1923": 5153,
    " conveni": 5154,
    " award": 5155,
    " discharged": 5156,
    " dismissal": 5157,
    " prohibiting": 5158,
    " composition": 5159,
    " judge": 5160,
    " alle": 5161,
    " cognizance": 5162,
    " urine": 5163,
    " fourth": 5164,
    " blindness": 5165,
    " chest": 5166,
    " mi": 5167,
    " delh": 5168,
    " delhi": 5169,
    " qc": 5170,
    " 122": 5171,
    " :::": 5172,
    " ::::": 5173,
    " @@@@,,,,": 5174,
    " bb": 5175,
    " 204": 5176,
    "rr": 5177,
    " uuu": 5178,
    " uuuu": 5179,
    " 110": 5180,
    "xx": 5181,
    "^^": 5182,
    " 74": 5183,
    " 106": 5184,
    " 143": 5185,
    " 131": 5186,
    "oo": 5187,
    " 136": 5188,
    " 141": 5189,
    " 165": 5190,
    " sup": 5191,
    " makes": 5192,
    " context": 5193,
    " superint": 5194,
    " carbonaceous": 5195,
    " provides": 5196,
    " rendered": 5197,
    "utive": 5198,
    " digging": 5199,
    " storing": 5200,
    " transmitted": 5201,
    " excavations": 5202,
    " pipelines": 5203,
    "junction": 5204,
    " correspond": 5205,
    " correspondence": 5206,
    " bursting": 5207,
    " headgear": 5208,
    " mess": 5209,
    " exhib": 5210,
    " killed": 5211,
    "io": 5212,
    "sion": 5213,
    " themsel": 5214,
    " themselves": 5215,
    "orum": 5216,
    " votes": 5217,
    " circulated": 5218,
    " confirmed": 5219,
    " early": 5220,
    " directs": 5221,
    " territories": 5222,
    " examiners": 5223,
    "india": 5224,
    " sob": 5225,
    " sobri": 5226,
    " sobriety": 5227,
    " satisfies": 5228,
    " liter": 5229,
    " literate": 5230,
    "rived": 5231,
    " real": 5232,
    " word": 5233,
    " across": 5234,
    "llation": 5235,
    " inco": 5236,
    " concl": 5237,
    " endor": 5238,
    " answer": 5239,
    " vary": 5240,
    " vacate": 5241,
    " supervising": 5242,
    " 176": 5243,
    " experienced": 5244,
    " eliminate": 5245,
    " remains": 5246,
    " dilig": 5247,
    " diligence": 5248,
    " identify": 5249,
    " draw": 5250,
    "ological": 5251,
    " involved": 5252,
    " remedial": 5253,
    " convenience": 5254,
    " refuse": 5255,
    " offer": 5256,
    " faithfully": 5257,
    " proceeds": 5258,
    " understands": 5259,
    " newly": 5260,
    " duct": 5261,
    " analysed": 5262,
    "romet": 5263,
    "oms": 5264,
    " satisfactor": 5265,
    " satisfactorily": 5266,
    " infring": 5267,
    "washed": 5268,
    " sprags": 5269,
    " devo": 5270,
    " devote": 5271,
    " 186": 5272,
    " shotfirer": 5273,
    "indicator": 5274,
    "hous": 5275,
    "house": 5276,
    " gauges": 5277,
    " approached": 5278,
    "logged": 5279,
    " anne": 5280,
    "riding": 5281,
    " unclut": 5282,
    " unclutched": 5283,
    " bow": 5284,
    " smoo": 5285,
    " smooth": 5286,
    " intoxicating": 5287,
    " drug": 5288,
    " canister": 5289,
    " wind": 5290,
    " ti": 5291,
    " tipper": 5292,
    " reply": 5293,
    " reverse": 5294,
    "aded": 5295,
    " magne": 5296,
    "sto": 5297,
    " dyke": 5298,
    " impos": 5299,
    " drain": 5300,
    " bodies": 5301,
    " stap": 5302,
    " staple": 5303,
    " nine": 5304,
    "mming": 5305,
    "mar": 5306,
    " sett": 5307,
    " reliable": 5308,
    " allows": 5309,
    " drivage": 5310,
    " spaced": 5311,
    " served": 5312,
    " seepage": 5313,
    " viii": 5314,
    " rigid": 5315,
    " mid": 5316,
    " very": 5317,
    " printed": 5318,
    " inside": 5319,
    " released": 5320,
    " seen": 5321,
    " gap": 5322,
    " hooks": 5323,
    " repa": 5324,
    " repaired": 5325,
    " centre": 5326,
    "det": 5327,
    " things": 5328,
    " disconnection": 5329,
    " history": 5330,
    " piece": 5331,
    " compon": 5332,
    " crac": 5333,
    "ends": 5334,
    " weakness": 5335,
    " warn": 5336,
    " transported": 5337,
    " endless": 5338,
    " cabl": 5339,
    " cables": 5340,
    " uncoupled": 5341,
    " warned": 5342,
    "controlled": 5343,
    " anch": 5344,
    " sequ": 5345,
    " loads": 5346,
    " communications": 5347,
    " layout": 5348,
    " bins": 5349,
    "augh": 5350,
    " tar": 5351,
    " assessed": 5352,
    " docu": 5353,
    " document": 5354,
    " policy": 5355,
    " bread": 5356,
    " breadth": 5357,
    " reclaimed": 5358,
    " removing": 5359,
    " shape": 5360,
    " save": 5361,
    " void": 5362,
    " saving": 5363,
    " parting": 5364,
    " changed": 5365,
    " dislo": 5366,
    " dislod": 5367,
    " dislodged": 5368,
    " dresser": 5369,
    "pi": 5370,
    "piec": 5371,
    " reinforced": 5372,
    " powered": 5373,
    " web": 5374,
    "tional": 5375,
    " leads": 5376,
    " careful": 5377,
    " heights": 5378,
    " stage": 5379,
    " investigations": 5380,
    " recept": 5381,
    " receptac": 5382,
    " veget": 5383,
    " vegetation": 5384,
    " accumulate": 5385,
    " cleared": 5386,
    " housing": 5387,
    " determining": 5388,
    " isolated": 5389,
    " detector": 5390,
    " resistant": 5391,
    " oils": 5392,
    " locations": 5393,
    " poisonous": 5394,
    " atmospher": 5395,
    " atmospheric": 5396,
    "ats": 5397,
    " inadequ": 5398,
    " inadequate": 5399,
    " prof": 5400,
    " accessories": 5401,
    " quartz": 5402,
    " notify": 5403,
    " wetted": 5404,
    " veloc": 5405,
    " velocity": 5406,
    " fumes": 5407,
    " filter": 5408,
    " lies": 5409,
    "mple": 5410,
    " compr": 5411,
    " exploratory": 5412,
    " ascertaining": 5413,
    " canal": 5414,
    " reck": 5415,
    " reckon": 5416,
    " reckoned": 5417,
    " floo": 5418,
    " flooding": 5419,
    " minute": 5420,
    " bulb": 5421,
    "work": 5422,
    " circul": 5423,
    " neare": 5424,
    " nearest": 5425,
    " cig": 5426,
    " knowingly": 5427,
    " magazines": 5428,
    " exploder": 5429,
    "hot": 5430,
    " surpl": 5431,
    " surplus": 5432,
    "vable": 5433,
    "dr": 5434,
    " misfires": 5435,
    " expec": 5436,
    "ored": 5437,
    "comp": 5438,
    " valves": 5439,
    " monitors": 5440,
    " cranes": 5441,
    " rated": 5442,
    " subjects": 5443,
    "icated": 5444,
    " agencies": 5445,
    " limb": 5446,
    " wears": 5447,
    "rescuer": 5448,
    " undergo": 5449,
    " sickness": 5450,
    " could": 5451,
    " respond": 5452,
    " print": 5453,
    " processing": 5454,
    " product": 5455,
    "sur": 5456,
    " rocks": 5457,
    " mineralised": 5458,
    " deed": 5459,
    " pursuant": 5460,
    " envis": 5461,
    " envisaged": 5462,
    " viol": 5463,
    " hydro": 5464,
    " monaz": 5465,
    " monazite": 5466,
    " prohibition": 5467,
    "ization": 5468,
    " utilisation": 5469,
    " lap": 5470,
    " lapse": 5471,
    " atle": 5472,
    " atleast": 5473,
    " veins": 5474,
    " lodes": 5475,
    " reefs": 5476,
    " beds": 5477,
    " administ": 5478,
    " administrative": 5479,
    " kilometres": 5480,
    " lands": 5481,
    " maps": 5482,
    " inclusive": 5483,
    " apprehen": 5484,
    " apprehended": 5485,
    " accordingly": 5486,
    " compounded": 5487,
    "physical": 5488,
    " raw": 5489,
    " status": 5490,
    " aerial": 5491,
    "ml": 5492,
    " tonnage": 5493,
    " _________reg": 5494,
    " _________region": 5495,
    "allo": 5496,
    "allotted": 5497,
    " tahs": 5498,
    " tahsil": 5499,
    "taluk": 5500,
    "along": 5501,
    "due": 5502,
    " #:": 5503,
    " prices": 5504,
    " mes": 5505,
    " mesh": 5506,
    " (*)": 5507,
    " consignee": 5508,
    " substantiate": 5509,
    " fob": 5510,
    " invoices": 5511,
    "nil": 5512,
    "quan": 5513,
    "quantity": 5514,
    "ryso": 5515,
    "rysotile": 5516,
    " fluor": 5517,
    " fluorite": 5518,
    "orspar": 5519,
    " ky": 5520,
    " kyanite": 5521,
    " smel": 5522,
    " smelter": 5523,
    " gem": 5524,
    " rough": 5525,
    " uncut": 5526,
    "furnish": 5527,
    ")........................": 5528,
    ")..........................": 5529,
    ")..........................(": 5530,
    ")..................": 5531,
    " overha": 5532,
    " overhaul": 5533,
    " finance": 5534,
    "operative": 5535,
    " rents": 5536,
    "consu": 5537,
    "consump": 5538,
    "consumption": 5539,
    " lubricant": 5540,
    " nos": 5541,
    " ):": 5542,
    " depreciation": 5543,
    " cesses": 5544,
    " gov": 5545,
    " govt": 5546,
    " soa": 5547,
    " soaked": 5548,
    " mts": 5549,
    "45": 5550,
    " fractions": 5551,
    " processed": 5552,
    " planted": 5553,
    " surv": 5554,
    " survival": 5555,
    "termination": 5556,
    "iti": 5557,
    "dist": 5558,
    " tude": 5559,
    "ddmm": 5560,
    " owned": 5561,
    " purchased": 5562,
    " bellman": 5563,
    "39": 5564,
    " assessors": 5565,
    " witnesses": 5566,
    " mates": 5567,
    " birds": 5568,
    " ka": 5569,
    " respiratory": 5570,
    " washing": 5571,
    " 1953": 5572,
    " bery": 5573,
    " ..(": 5574,
    " cash": 5575,
    "rd": 5576,
    "51": 5577,
    " corn": 5578,
    " republic": 5579,
    " awarding": 5580,
    " rajas": 5581,
    " rajasth": 5582,
    " rajasthan": 5583,
    " jodh": 5584,
    "araj": 5585,
    "arajend": 5586,
    "arajendra": 5587,
    " bangal": 5588,
    " bangalore": 5589,
    " madras": 5590,
    " bomb": 5591,
    " bombay": 5592,
    " merit": 5593,
    "abad": 5594,
    "kee": 5595,
    " punjab": 5596,
    " occupier": 5597,
    " reportable": 5598,
    " pertain": 5599,
    " conveniently": 5600,
    " females": 5601,
    " limitation": 5602,
    " sixteen": 5603,
    " begins": 5604,
    "),(": 5605,
    "offic": 5606,
    " 29d": 5607,
    " 29f": 5608,
    " 29j": 5609,
    " calcul": 5610,
    "spital": 5611,
    " conformity": 5612,
    " 656": 5613,
    "1980": 5614,
    "clusive": 5615,
    " 1949": 5616,
    " 17a": 5617,
    " uranium": 5618,
    " 95": 5619,
    " 104": 5620,
    " (/": 5621,
    " hg": 5622,
    " >>": 5623,
    " >>>>": 5624,
    " ???": 5625,
    " ????": 5626,
    "jjj": 5627,
    " 5000": 5628,
    " 68": 5629,
    "75": 5630,
    " 79": 5631,
    " 81": 5632,
    " 82": 5633,
    " 105": 5634,
    " 115": 5635,
    " 83": 5636,
    " 87": 5637,
    " 99": 5638,
    " 107": 5639,
    " 108": 5640,
    " 157": 5641,
    " 179": 5642,
    " 168": 5643,
    " 172": 5644,
    " 137": 5645,
    " 184": 5646,
    " 140": 5647,
    " 147": 5648,
    " 159": 5649,
    " 161": 5650,
    "29": 5651,
    "200": 5652,
    " 160": 5653,
    " ministry": 5654,
    " objections": 5655,
    " therefore": 5656,
    " faces": 5657,
    " fiery": 5658,
    " longwall": 5659,
    " boiler": 5660,
    " conver": 5661,
    " utilised": 5662,
    " stowing": 5663,
    "hood": 5664,
    " poten": 5665,
    "asted": 5666,
    " supplies": 5667,
    " prominent": 5668,
    " 164": 5669,
    " property": 5670,
    " reopened": 5671,
    "holder": 5672,
    " private": 5673,
    " intimated": 5674,
    " influ": 5675,
    " ess": 5676,
    " essential": 5677,
    " whereby": 5678,
    "elect": 5679,
    "electr": 5680,
    "electrical": 5681,
    " engage": 5682,
    " engagement": 5683,
    " addressed": 5684,
    " cessation": 5685,
    "oint": 5686,
    " though": 5687,
    " transacted": 5688,
    " thereup": 5689,
    " thereupon": 5690,
    " opinions": 5691,
    " manage": 5692,
    "orm": 5693,
    " gazetted": 5694,
    " matric": 5695,
    " matriculation": 5696,
    " attempts": 5697,
    " cancellation": 5698,
    " negligence": 5699,
    " considering": 5700,
    " endorsement": 5701,
    " validity": 5702,
    "opened": 5703,
    " answerable": 5704,
    "itate": 5705,
    "long": 5706,
    " horse": 5707,
    " assessment": 5708,
    " actions": 5709,
    "fers": 5710,
    " arising": 5711,
    " deployed": 5712,
    " performing": 5713,
    " adhere": 5714,
    "lect": 5715,
    " sle": 5716,
    " sleep": 5717,
    " owing": 5718,
    " deleg": 5719,
    " affecting": 5720,
    " photographs": 5721,
    "such": 5722,
    " ventilators": 5723,
    " assistance": 5724,
    " proble": 5725,
    " problems": 5726,
    " sympt": 5727,
    " finished": 5728,
    " edges": 5729,
    " inex": 5730,
    " inexper": 5731,
    " inexperienced": 5732,
    " affor": 5733,
    " affording": 5734,
    " clearing": 5735,
    " installing": 5736,
    " changing": 5737,
    " mechanic": 5738,
    " correctness": 5739,
    " adjustment": 5740,
    " shelf": 5741,
    "rails": 5742,
    " proxim": 5743,
    " proximity": 5744,
    " swing": 5745,
    " ahead": 5746,
    " error": 5747,
    " grid": 5748,
    "dam": 5749,
    " tramming": 5750,
    " manual": 5751,
    " settled": 5752,
    " flat": 5753,
    " index": 5754,
    " books": 5755,
    " omit": 5756,
    " defra": 5757,
    " defrayed": 5758,
    " ingress": 5759,
    " distant": 5760,
    " walkable": 5761,
    " searching": 5762,
    " lagging": 5763,
    " incre": 5764,
    " fenc": 5765,
    " fencings": 5766,
    " extre": 5767,
    " sheave": 5768,
    " rot": 5769,
    " controlling": 5770,
    " valve": 5771,
    " ready": 5772,
    " rectified": 5773,
    " overwind": 5774,
    " lever": 5775,
    " king": 5776,
    " inadvertent": 5777,
    " release": 5778,
    " multi": 5779,
    " overhead": 5780,
    " taper": 5781,
    " tapered": 5782,
    "imet": 5783,
    "lting": 5784,
    "apped": 5785,
    " heat": 5786,
    "ioration": 5787,
    " enabl": 5788,
    " enabling": 5789,
    " obstructions": 5790,
    " ix": 5791,
    " 211": 5792,
    " manhole": 5793,
    " tan": 5794,
    " shunt": 5795,
    " aud": 5796,
    " eval": 5797,
    " evalu": 5798,
    " conform": 5799,
    " gravel": 5800,
    " sloped": 5801,
    " undercut": 5802,
    "timate": 5803,
    " planned": 5804,
    " languages": 5805,
    " relates": 5806,
    "semb": 5807,
    " 221": 5808,
    " splitting": 5809,
    " much": 5810,
    "apsed": 5811,
    "large": 5812,
    " comes": 5813,
    "aved": 5814,
    " dism": 5815,
    " dismant": 5816,
    " lid": 5817,
    " cogs": 5818,
    " cog": 5819,
    "ume": 5820,
    " thereat": 5821,
    " substantially": 5822,
    " seat": 5823,
    " path": 5824,
    " guard": 5825,
    " gang": 5826,
    "plan": 5827,
    " lift": 5828,
    " accred": 5829,
    " worksho": 5830,
    " workshops": 5831,
    " shale": 5832,
    " dumping": 5833,
    " boilers": 5834,
    " extinguished": 5835,
    " signs": 5836,
    " enable": 5837,
    " bric": 5838,
    "tio": 5839,
    " relaxation": 5840,
    " hot": 5841,
    "exting": 5842,
    "extingu": 5843,
    " reve": 5844,
    " limited": 5845,
    " introduction": 5846,
    " improvements": 5847,
    " respirator": 5848,
    " sort": 5849,
    " sorting": 5850,
    " incidental": 5851,
    "irc": 5852,
    " blow": 5853,
    " treating": 5854,
    " precautionary": 5855,
    "stre": 5856,
    " upper": 5857,
    " acquired": 5858,
    "pped": 5859,
    " lime": 5860,
    " partition": 5861,
    " tot": 5862,
    "amin": 5863,
    " conducting": 5864,
    " crosscut": 5865,
    " barric": 5866,
    " smoking": 5867,
    " relighting": 5868,
    " suspected": 5869,
    "working": 5870,
    " legible": 5871,
    " receives": 5872,
    " find": 5873,
    " indig": 5874,
    " indigen": 5875,
    " petrol": 5876,
    " refilled": 5877,
    " stores": 5878,
    "rous": 5879,
    " flying": 5880,
    " shelters": 5881,
    " preferably": 5882,
    " dealt": 5883,
    " dwe": 5884,
    "cill": 5885,
    "cillary": 5886,
    " fixing": 5887,
    " produces": 5888,
    " noise": 5889,
    " communicated": 5890,
    " authorized": 5891,
    " log": 5892,
    " symb": 5893,
    " symbol": 5894,
    " 279": 5895,
    " exercis": 5896,
    " exercisable": 5897,
    "surface": 5898,
    " guidelines": 5899,
    "first": 5900,
    " laws": 5901,
    " violation": 5902,
    " optim": 5903,
    " gar": 5904,
    "ead": 5905,
    " leased": 5906,
    " 10a": 5907,
    " spent": 5908,
    " lith": 5909,
    " map": 5910,
    " cad": 5911,
    "filled": 5912,
    " flor": 5913,
    " flora": 5914,
    "enth": 5915,
    " illeg": 5916,
    " illegal": 5917,
    " foreign": 5918,
    " procured": 5919,
    " preserve": 5920,
    "essional": 5921,
    " penalty": 5922,
    " nagpur": 5923,
    " conviction": 5924,
    " preservation": 5925,
    " geophysical": 5926,
    " licensee": 5927,
    " expir": 5928,
    " box": 5929,
    " _______________________________": 5930,
    " pitting": 5931,
    " trenching": 5932,
    " ______________": 5933,
    " feasibility": 5934,
    " mail": 5935,
    " __________________": 5936,
    " pyrites": 5937,
    " abrasive": 5938,
    " refract": 5939,
    " amphib": 5940,
    " amphibole": 5941,
    " chrysotile": 5942,
    "flu": 5943,
    "fluorspar": 5944,
    " phosphor": 5945,
    " (#)": 5946,
    "iety": 5947,
    "prev": 5948,
    "previous": 5949,
    "exp": 5950,
    " acquisition": 5951,
    " corpor": 5952,
    " money": 5953,
    " benef": 5954,
    " benefits": 5955,
    "others": 5956,
    " pumps": 5957,
    " identity": 5958,
    " aad": 5959,
    " aadhar": 5960,
    " citi": 5961,
    " citiz": 5962,
    " 2013": 5963,
    "district": 5964,
    " lati": 5965,
    " resident": 5966,
    "cer": 5967,
    " despatched": 5968,
    " quantit": 5969,
    "product": 5970,
    "23": 5971,
    "30": 5972,
    " byel": 5973,
    " byelaw": 5974,
    " byelaws": 5975,
    "tituting": 5976,
    " footwall": 5977,
    " tope": 5978,
    " compart": 5979,
    " chargeman": 5980,
    "ls": 5981,
    " chr": 5982,
    " contin": 5983,
    " kilogrammes": 5984,
    " shotholes": 5985,
    " fuses": 5986,
    "2c": 5987,
    " beryl": 5988,
    "days": 5989,
    " adding": 5990,
    " funds": 5991,
    " forced": 5992,
    " 1963": 5993,
    " 1938": 5994,
    " enginering": 5995,
    " membership": 5996,
    " sheff": 5997,
    " sheffield": 5998,
    " leed": 5999,
    " leeds": 6000,
    " birming": 6001,
    " birmingham": 6002,
    " color": 6003,
    " colorad": 6004,
    " colorado": 6005,
    " platte": 6006,
    " plattev": 6007,
    "ugal": 6008,
    " lis": 6009,
    " lisbon": 6010,
    "list": 6011,
    "pore": 6012,
    "hy": 6013,
    " 1959": 6014,
    "lessee": 6015,
    " statements": 6016,
    " pertaining": 6017,
    " accru": 6018,
    " 9a": 6019,
    "cept": 6020,
    " urin": 6021,
    " urinals": 6022,
    " dispens": 6023,
    " nur": 6024,
    " urgent": 6025,
    " trainee": 6026,
    " superan": 6027,
    " superann": 6028,
    " superannu": 6029,
    " declar": 6030,
    " declaration": 6031,
    " punishment": 6032,
    " prosec": 6033,
    " alleged": 6034,
    " 29l": 6035,
    " 29r": 6036,
    " vess": 6037,
    " vessels": 6038,
    "1960": 6039,
    " ut": 6040,
    " utens": 6041,
    " utensils": 6042,
    " hindi": 6043,
    " nings": 6044,
    "quar": 6045,
    "periodical": 6046,
    " specialist": 6047,
    "alysis": 6048,
    " deformity": 6049,
    " pulmon": 6050,
    " pulmonary": 6051,
    " 9c": 6052,
    "exclusive": 6053,
    " vent": 6054,
    " venture": 6055,
    "day": 6056,
    ")))": 6057,
    " 4e": 6058,
    "24": 6059,
    "1989": 6060,
    " <": 6061,
    " jjjj": 6062,
    " 1500": 6063,
    " kk": 6064,
    " cccc0000": 6065,
    " 4w": 6066,
    " ni": 6067,
    " ttt": 6068,
    " tttt": 6069,
    " eh": 6070,
    " 360": 6071,
    " 88": 6072,
    " 89": 6073,
    " bh": 6074,
    " 94": 6075,
    " 101": 6076,
    " .-": 6077,
    " 114": 6078,
    " 119": 6079,
    " 127": 6080,
    " 128": 6081,
    " 149": 6082,
    " 258": 6083,
    " 156": 6084,
    " sugges": 6085,
    " superintend": 6086,
    " services": 6087,
    " inaccess": 6088,
    " inaccessible": 6089,
    " executive": 6090,
    " transporting": 6091,
    " intr": 6092,
    " stationary": 6093,
    " collective": 6094,
    " nitro": 6095,
    " substance": 6096,
    " terminating": 6097,
    " resumption": 6098,
    " influx": 6099,
    " sever": 6100,
    " several": 6101,
    " interruption": 6102,
    " spark": 6103,
    "over": 6104,
    " messeng": 6105,
    " messenger": 6106,
    " impart": 6107,
    " imparting": 6108,
    " ceas": 6109,
    " ceasing": 6110,
    " discus": 6111,
    " adjourned": 6112,
    " decides": 6113,
    " pa": 6114,
    " division": 6115,
    " centres": 6116,
    " unif": 6117,
    " surg": 6118,
    " surgery": 6119,
    " acquiring": 6120,
    " attended": 6121,
    " amended": 6122,
    " deprived": 6123,
    " stamp": 6124,
    " stamped": 6125,
    " incomp": 6126,
    " incompet": 6127,
    " misc": 6128,
    " miscond": 6129,
    " misconduct": 6130,
    " instituted": 6131,
    " conclusion": 6132,
    "aining": 6133,
    "ishes": 6134,
    " promoting": 6135,
    " overall": 6136,
    "ians": 6137,
    " contractors": 6138,
    " manufacturers": 6139,
    " feasible": 6140,
    " exits": 6141,
    " explosions": 6142,
    " inund": 6143,
    " comprehen": 6144,
    " resulting": 6145,
    "tra": 6146,
    " occurrences": 6147,
    " penalties": 6148,
    " neglect": 6149,
    " obey": 6150,
    "safety": 6151,
    " employer": 6152,
    " justi": 6153,
    " justifiable": 6154,
    " travels": 6155,
    " traveling": 6156,
    " rectify": 6157,
    " defects": 6158,
    " overmen": 6159,
    " prompt": 6160,
    " carries": 6161,
    " discipl": 6162,
    " disciplinary": 6163,
    " investigate": 6164,
    " analy": 6165,
    " voc": 6166,
    " vocational": 6167,
    " workman": 6168,
    " implemented": 6169,
    " advise": 6170,
    "ades": 6171,
    "eight": 6172,
    " observations": 6173,
    " ba": 6174,
    " symptoms": 6175,
    " equipments": 6176,
    " collect": 6177,
    " exhaust": 6178,
    " vehicles": 6179,
    " necessaries": 6180,
    " 185": 6181,
    " switches": 6182,
    "stays": 6183,
    " instruct": 6184,
    " observes": 6185,
    " approaches": 6186,
    " shortage": 6187,
    " absol": 6188,
    " annealing": 6189,
    " oiled": 6190,
    " indist": 6191,
    " indistinct": 6192,
    " unclutch": 6193,
    " beforeh": 6194,
    " beforehand": 6195,
    " bulky": 6196,
    " trip": 6197,
    "catches": 6198,
    " suspects": 6199,
    "ero": 6200,
    "stay": 6201,
    "tipping": 6202,
    "ights": 6203,
    " fitting": 6204,
    " sight": 6205,
    "att": 6206,
    " drives": 6207,
    " stipulated": 6208,
    " kee": 6209,
    " keeper": 6210,
    " workplaces": 6211,
    " forc": 6212,
    " forcibly": 6213,
    " tippers": 6214,
    " mechanically": 6215,
    "ensive": 6216,
    " magnetic": 6217,
    "divided": 6218,
    " cloth": 6219,
    "ester": 6220,
    " conventions": 6221,
    "stopping": 6222,
    " projection": 6223,
    " transverse": 6224,
    " pond": 6225,
    " drainage": 6226,
    " drifts": 6227,
    "mark": 6228,
    " levelling": 6229,
    " indexed": 6230,
    " bear": 6231,
    " inaccur": 6232,
    " inaccurate": 6233,
    " breach": 6234,
    " overl": 6235,
    " mout": 6236,
    " mouth": 6237,
    " broad": 6238,
    " lining": 6239,
    " increased": 6240,
    " cy": 6241,
    " extreme": 6242,
    " suited": 6243,
    " sli": 6244,
    " slipping": 6245,
    " spiral": 6246,
    "even": 6247,
    " torque": 6248,
    " revol": 6249,
    " interch": 6250,
    " interchanging": 6251,
    " definite": 6252,
    " topmost": 6253,
    " receivers": 6254,
    " roofing": 6255,
    " manufacture": 6256,
    "chain": 6257,
    " shock": 6258,
    " interlock": 6259,
    " attaching": 6260,
    " shack": 6261,
    " shackle": 6262,
    " attemp": 6263,
    " twice": 6264,
    " circumfer": 6265,
    " circumference": 6266,
    "bar": 6267,
    " audio": 6268,
    " visual": 6269,
    " digital": 6270,
    "run": 6271,
    " slack": 6272,
    " rim": 6273,
    " millimet": 6274,
    " poured": 6275,
    " recapped": 6276,
    " gears": 6277,
    " cracks": 6278,
    " deter": 6279,
    " deterioration": 6280,
    " rods": 6281,
    "irt": 6282,
    " particularly": 6283,
    " noted": 6284,
    " discovered": 6285,
    " adoles": 6286,
    " adolescent": 6287,
    " runa": 6288,
    " runaway": 6289,
    "rail": 6290,
    " detached": 6291,
    " supported": 6292,
    "road": 6293,
    " uncontrolled": 6294,
    " haulages": 6295,
    " anchoring": 6296,
    " series": 6297,
    " sliding": 6298,
    "wheel": 6299,
    " locomotives": 6300,
    " shunting": 6301,
    " pushing": 6302,
    " screens": 6303,
    " underne": 6304,
    " underneath": 6305,
    " thoroughf": 6306,
    " thoroughfare": 6307,
    " monitor": 6308,
    " involve": 6309,
    "tise": 6310,
    " rejects": 6311,
    " rolling": 6312,
    " smaller": 6313,
    " therefor": 6314,
    "col": 6315,
    " stow": 6316,
    " stowed": 6317,
    " confirmation": 6318,
    " obligations": 6319,
    " vertic": 6320,
    " vertically": 6321,
    " administration": 6322,
    " binding": 6323,
    " past": 6324,
    " illust": 6325,
    " assemb": 6326,
    "firers": 6327,
    " supporting": 6328,
    " slip": 6329,
    " pack": 6330,
    " cho": 6331,
    " chock": 6332,
    " sequence": 6333,
    " canop": 6334,
    "utt": 6335,
    " pieces": 6336,
    " net": 6337,
    " involves": 6338,
    " alone": 6339,
    " extinguish": 6340,
    " wil": 6341,
    " cre": 6342,
    " plaster": 6343,
    " ratio": 6344,
    " fluid": 6345,
    "jected": 6346,
    "rescuers": 6347,
    "unted": 6348,
    " chemicals": 6349,
    "extinguishers": 6350,
    " ash": 6351,
    " believed": 6352,
    " gun": 6353,
    " harmless": 6354,
    " disinf": 6355,
    " bits": 6356,
    " pne": 6357,
    " pneum": 6358,
    " pneumatic": 6359,
    " moist": 6360,
    " dilute": 6361,
    " elapsed": 6362,
    " chutes": 6363,
    "rating": 6364,
    " exhausted": 6365,
    " frequency": 6366,
    " timing": 6367,
    "tern": 6368,
    " let": 6369,
    " letters": 6370,
    " volati": 6371,
    " volatile": 6372,
    " sample": 6373,
    " decide": 6374,
    " neigh": 6375,
    "bor": 6376,
    " faults": 6377,
    " disturbances": 6378,
    " alluvi": 6379,
    " alluvium": 6380,
    " underlying": 6381,
    "ught": 6382,
    " exact": 6383,
    " laps": 6384,
    " xii": 6385,
    " most": 6386,
    " ack": 6387,
    " acknow": 6388,
    "nant": 6389,
    " brick": 6390,
    " partitions": 6391,
    " outbye": 6392,
    " contamin": 6393,
    " interrup": 6394,
    "watering": 6395,
    "watered": 6396,
    " exclusively": 6397,
    " burning": 6398,
    " refused": 6399,
    " siding": 6400,
    " routes": 6401,
    " specifically": 6402,
    " sufficiency": 6403,
    " misuse": 6404,
    " unlock": 6405,
    " burnt": 6406,
    " highly": 6407,
    " spirit": 6408,
    "urry": 6409,
    " licensed": 6410,
    "ued": 6411,
    " containers": 6412,
    "ductive": 6413,
    " scraper": 6414,
    " crimp": 6415,
    "inflammable": 6416,
    " soft": 6417,
    " pressed": 6418,
    " home": 6419,
    " metallic": 6420,
    " sockets": 6421,
    " couple": 6422,
    " miss": 6423,
    "enter": 6424,
    " faulty": 6425,
    " dwelling": 6426,
    "ather": 6427,
    " continuance": 6428,
    " ancillary": 6429,
    " movable": 6430,
    " receiver": 6431,
    "rece": 6432,
    " winch": 6433,
    " added": 6434,
    "inter": 6435,
    "feas": 6436,
    "feasibility": 6437,
    " fields": 6438,
    " target": 6439,
    " exploitation": 6440,
    "roud": 6441,
    " degas": 6442,
    " degasification": 6443,
    " counter": 6444,
    " posi": 6445,
    " quarterly": 6446,
    " negligently": 6447,
    " legi": 6448,
    " legitimate": 6449,
    " obligation": 6450,
    " arriv": 6451,
    " authen": 6452,
    " authentic": 6453,
    " authenticated": 6454,
    " evacuation": 6455,
    "itated": 6456,
    " heard": 6457,
    " appealed": 6458,
    " repeal": 6459,
    " remark": 6460,
    " green": 6461,
    "na": 6462,
    " kal": 6463,
    " petrole": 6464,
    " petroleum": 6465,
    " assay": 6466,
    "ody": 6467,
    " logs": 6468,
    " restoration": 6469,
    " why": 6470,
    " stac": 6471,
    " ilmen": 6472,
    " zir": 6473,
    " zircon": 6474,
    "net": 6475,
    " feed": 6476,
    " summ": 6477,
    " availability": 6478,
    " hect": 6479,
    " difference": 6480,
    " undertakes": 6481,
    " takes": 6482,
    " trib": 6483,
    " efflu": 6484,
    " effluents": 6485,
    "titude": 6486,
    " longitude": 6487,
    " united": 6488,
    " monuments": 6489,
    " topo": 6490,
    " sate": 6491,
    "llite": 6492,
    " cadast": 6493,
    " cadastr": 6494,
    " floods": 6495,
    " backfilled": 6496,
    "illing": 6497,
    " pyrite": 6498,
    " gross": 6499,
    " filed": 6500,
    " geologists": 6501,
    " professional": 6502,
    "du": 6503,
    "duate": 6504,
    " grants": 6505,
    " provinc": 6506,
    " provincial": 6507,
    " calculate": 6508,
    "sal": 6509,
    "iving": 6510,
    " cred": 6511,
    " repos": 6512,
    " reposit": 6513,
    " expected": 6514,
    " geoc": 6515,
    " geoche": 6516,
    " geochemical": 6517,
    " page": 6518,
    " _____________________________": 6519,
    "metres": 6520,
    " ____________________________________________": 6521,
    " ______________________________________________": 6522,
    " ___________________________": 6523,
    " _____________________": 6524,
    " ________20": 6525,
    "unit": 6526,
    " ($": 6527,
    " ($):": 6528,
    " (*):": 6529,
    " ____": 6530,
    " (^": 6531,
    "grades": 6532,
    " refractory": 6533,
    " ld": 6534,
    " sms": 6535,
    " bf": 6536,
    " phosphorite": 6537,
    "mill": 6538,
    " viz": 6539,
    " cath": 6540,
    " cathodes": 6541,
    "@)": 6542,
    " carats": 6543,
    " transferor": 6544,
    "explo": 6545,
    "employ": 6546,
    "employment": 6547,
    " factors": 6548,
    " corporations": 6549,
    " ker": 6550,
    " kerosen": 6551,
    "astic": 6552,
    " subgrade": 6553,
    "proc": 6554,
    "process": 6555,
    "processed": 6556,
    " excavators": 6557,
    ")/": 6558,
    "boreholes": 6559,
    " ___________________": 6560,
    "also": 6561,
    "last": 6562,
    " citizens": 6563,
    " partners": 6564,
    "tick": 6565,
    "only": 6566,
    " applying": 6567,
    " kh": 6568,
    " khas": 6569,
    "--------------": 6570,
    "town": 6571,
    " registra": 6572,
    " ue": 6573,
    " ly": 6574,
    " minera": 6575,
    "_________________": 6576,
    " expans": 6577,
    " expansion": 6578,
    " coke": 6579,
    " 1960": 6580,
    " 1890": 6581,
    " signalman": 6582,
    " ate": 6583,
    " 8a": 6584,
    "qual": 6585,
    "qualification": 6586,
    " getting": 6587,
    " timbering": 6588,
    " relations": 6589,
    " assessor": 6590,
    " constituting": 6591,
    " contr": 6592,
    " enforcing": 6593,
    " compelling": 6594,
    " legally": 6595,
    " adjourn": 6596,
    " diss": 6597,
    " extracts": 6598,
    " insp": 6599,
    " medicine": 6600,
    " social": 6601,
    " trying": 6602,
    " mang": 6603,
    " mangers": 6604,
    " ladderways": 6605,
    " soll": 6606,
    " compartment": 6607,
    " ko": 6608,
    " koe": 6609,
    " koepe": 6610,
    " woman": 6611,
    " chute": 6612,
    " sets": 6613,
    " pitch": 6614,
    " kai": 6615,
    " seals": 6616,
    " fibres": 6617,
    "olite": 6618,
    " instal": 6619,
    " costs": 6620,
    "iency": 6621,
    " counted": 6622,
    "2b": 6623,
    " treas": 6624,
    " treasur": 6625,
    " treasury": 6626,
    " appeals": 6627,
    "div": 6628,
    "division": 6629,
    "talu": 6630,
    "taluq": 6631,
    " *(": 6632,
    " yours": 6633,
    " jad": 6634,
    "alite": 6635,
    " radio": 6636,
    " magn": 6637,
    " magnes": 6638,
    " magnesite": 6639,
    " slate": 6640,
    "nity": 6641,
    " e2": 6642,
    " medium": 6643,
    "state": 6644,
    "********": 6645,
    " 23rd": 6646,
    "engl": 6647,
    "england": 6648,
    " plattevil": 6649,
    " platteville": 6650,
    "portugal": 6651,
    " jay": 6652,
    " jayach": 6653,
    " jayacham": 6654,
    " jayachamarajendra": 6655,
    " andh": 6656,
    " andhra": 6657,
    "hya": 6658,
    " bhop": 6659,
    " bhopal": 6660,
    " advis": 6661,
    " advisory": 6662,
    " keral": 6663,
    " kerala": 6664,
    " luc": 6665,
    " luck": 6666,
    " lucknow": 6667,
    " osman": 6668,
    " osmania": 6669,
    " hyder": 6670,
    " hyderabad": 6671,
    " overseership": 6672,
    "hat": 6673,
    " adho": 6674,
    " adhoc": 6675,
    " jodhpur": 6676,
    " mus": 6677,
    "arh": 6678,
    " roor": 6679,
    " roorkee": 6680,
    " cornwall": 6681,
    " notific": 6682,
    " notifications": 6683,
    " 1958": 6684,
    "central": 6685,
    " enacted": 6686,
    " follows": 6687,
    " states": 6688,
    " empo": 6689,
    " empower": 6690,
    " quarrying": 6691,
    " superj": 6692,
    " superjacent": 6693,
    " mere": 6694,
    " declare": 6695,
    " surgeons": 6696,
    " 22a": 6697,
    " believe": 6698,
    " 1973": 6699,
    " dischar": 6700,
    " :--": 6701,
    " disclos": 6702,
    "except": 6703,
    " hear": 6704,
    " fulf": 6705,
    " urinal": 6706,
    " cup": 6707,
    " restricting": 6708,
    " apprentices": 6709,
    " quits": 6710,
    " reserved": 6711,
    " defaced": 6712,
    " rescind": 6713,
    " comprised": 6714,
    " sessions": 6715,
    " houses": 6716,
    " uses": 6717,
    " judgement": 6718,
    " failed": 6719,
    "[*": 6720,
    " 707": 6721,
    " cool": 6722,
    " calculating": 6723,
    "soil": 6724,
    " nurse": 6725,
    " wound": 6726,
    " outfit": 6727,
    " furniture": 6728,
    "officer": 6729,
    " 607": 6730,
    "1959": 6731,
    " benefit": 6732,
    " son": 6733,
    "daugh": 6734,
    "daughter": 6735,
    "wife": 6736,
    " ..,": 6737,
    " nerv": 6738,
    " nervous": 6739,
    " paralysis": 6740,
    "cele": 6741,
    " hern": 6742,
    " hernia": 6743,
    " alb": 6744,
    " sugar": 6745,
    " limbs": 6746,
    " chronic": 6747,
    " successfully": 6748,
    "----------------------------------------------------------------": 6749,
    " 9b": 6750,
    " 10c": 6751,
    " 11a": 6752,
    " waters": 6753,
    " continent": 6754,
    " continental": 6755,
    ").]": 6756,
    "56": 6757,
    " revised": 6758,
    "ana": 6759,
    " ))))": 6760,
    " gi": 6761,
    " (+": 6762,
    " )\"": 6763,
    " 1989": 6764,
    "xii": 6765,
    "xiii": 6766,
    "xiv": 6767,
    " +[": 6768,
    " 650": 6769,
    " lll": 6770,
    " llll": 6771,
    " qg": 6772,
    "c0": 6773,
    " )[": 6774,
    "vv": 6775,
    " xxx": 6776,
    " xxxx": 6777,
    " -)": 6778,
    " 363": 6779,
    " 1926": 6780,
    " 86": 6781,
    " 91": 6782,
    " 92": 6783,
    " 93": 6784,
    " 96": 6785,
    " 97": 6786,
    " 98": 6787,
    " 102": 6788,
    " 103": 6789,
    " 113": 6790,
    " iiii": 6791,
    " 118": 6792,
    " 125": 6793,
    " 270": 6794,
    " 126": 6795,
    " ooo": 6796,
    " oooo": 6797,
    " 132": 6798,
    " 133": 6799,
    " 7p": 6800,
    " 146": 6801,
    " 148": 6802,
    " 151": 6803,
    " 152": 6804,
    " 154": 6805,
    " 155": 6806,
    " 158": 6807,
    " suggestions": 6808,
    " supers": 6809,
    " mainly": 6810,
    " pe": 6811,
    " deputy": 6812,
    " commissioner": 6813,
    " enclosure": 6814,
    " 162": 6815,
    "zing": 6816,
    " intrins": 6817,
    " intrinsically": 6818,
    " developing": 6819,
    " collectively": 6820,
    " explode": 6821,
    " 163": 6822,
    " exercises": 6823,
    " season": 6824,
    " appended": 6825,
    " conveying": 6826,
    " expressions": 6827,
    " trijunction": 6828,
    " identifiable": 6829,
    " indication": 6830,
    "ash": 6831,
    " exhibit": 6832,
    " transformation": 6833,
    " usual": 6834,
    " emergent": 6835,
    " quorum": 6836,
    " agend": 6837,
    " agenda": 6838,
    " dispose": 6839,
    " paper": 6840,
    " casting": 6841,
    " vote": 6842,
    " uniform": 6843,
    " joh": 6844,
    " john": 6845,
    "master": 6846,
    " medicines": 6847,
    " 170": 6848,
    "ade": 6849,
    "mic": 6850,
    " 171": 6851,
    " refund": 6852,
    "ously": 6853,
    " dispatch": 6854,
    " deems": 6855,
    " cancelled": 6856,
    " attaining": 6857,
    " 173": 6858,
    " 174": 6859,
    " wishes": 6860,
    " reside": 6861,
    " 175": 6862,
    " volts": 6863,
    " sphere": 6864,
    " 177": 6865,
    "ordination": 6866,
    " enforcement": 6867,
    " appointments": 6868,
    " 178": 6869,
    "entive": 6870,
    " minimize": 6871,
    "cepti": 6872,
    "ceptible": 6873,
    " comprehensible": 6874,
    " investigated": 6875,
    " transfers": 6876,
    " correctly": 6877,
    " injuries": 6878,
    " aware": 6879,
    " 180": 6880,
    " omission": 6881,
    " belie": 6882,
    " believes": 6883,
    " understand": 6884,
    " 181": 6885,
    " conferring": 6886,
    " assign": 6887,
    " pointing": 6888,
    " inundation": 6889,
    " weeks": 6890,
    " propag": 6891,
    " visits": 6892,
    " promote": 6893,
    " frequented": 6894,
    " adequacy": 6895,
    " 183": 6896,
    " coursed": 6897,
    " reaches": 6898,
    "tient": 6899,
    " circuits": 6900,
    " rehe": 6901,
    " rehears": 6902,
    " rehearsals": 6903,
    "tod": 6904,
    "todate": 6905,
    " advanc": 6906,
    " ball": 6907,
    "blocks": 6908,
    " wheels": 6909,
    "ainted": 6910,
    " 187": 6911,
    " readings": 6912,
    " der": 6913,
    " indicators": 6914,
    " tidy": 6915,
    " shif": 6916,
    " shifted": 6917,
    " mechanics": 6918,
    " jer": 6919,
    " gently": 6920,
    " gives": 6921,
    " disob": 6922,
    " signalled": 6923,
    " allowing": 6924,
    " 191": 6925,
    " rides": 6926,
    " unatt": 6927,
    " electrician": 6928,
    "issue": 6929,
    " similarly": 6930,
    " ink": 6931,
    " got": 6932,
    " sure": 6933,
    " tun": 6934,
    " tunnel": 6935,
    " arch": 6936,
    " flag": 6937,
    " north": 6938,
    " merid": 6939,
    " meridian": 6940,
    " subdivided": 6941,
    " durable": 6942,
    " telegraph": 6943,
    " watercourse": 6944,
    " imposing": 6945,
    "ull": 6946,
    "ulla": 6947,
    "arse": 6948,
    " headings": 6949,
    " colours": 6950,
    "rain": 6951,
    " sea": 6952,
    " omits": 6953,
    " facil": 6954,
    " facilitate": 6955,
    " ease": 6956,
    " footh": 6957,
    " foothold": 6958,
    " proving": 6959,
    " broadcast": 6960,
    " broadcasting": 6961,
    " insets": 6962,
    " cyl": 6963,
    " cylind": 6964,
    " cylinders": 6965,
    " turns": 6966,
    " ring": 6967,
    " plates": 6968,
    "lin": 6969,
    "linked": 6970,
    " locking": 6971,
    " landed": 6972,
    " attempting": 6973,
    " 206": 6974,
    "ider": 6975,
    " pic": 6976,
    " cold": 6977,
    " splic": 6978,
    " spliced": 6979,
    " spare": 6980,
    " diameters": 6981,
    " riv": 6982,
    " bent": 6983,
    " fibre": 6984,
    " heated": 6985,
    " components": 6986,
    " joints": 6987,
    " vital": 6988,
    " dirt": 6989,
    " hat": 6990,
    " roller": 6991,
    " inef": 6992,
    " ineff": 6993,
    " ineffective": 6994,
    "uge": 6995,
    " empty": 6996,
    " slopes": 6997,
    " component": 6998,
    " 214": 6999,
    " pull": 7000,
    "vis": 7001,
    "visual": 7002,
    " alarm": 7003,
    " gets": 7004,
    " spillage": 7005,
    "bank": 7006,
    " pulling": 7007,
    " distingu": 7008,
    " audit": 7009,
    " obj": 7010,
    " achieve": 7011,
    " periodically": 7012,
    " alluv": 7013,
    " alluvial": 7014,
    " morum": 7015,
    " base": 7016,
    " tree": 7017,
    " overhanging": 7018,
    " ul": 7019,
    " ply": 7020,
    " deposited": 7021,
    " steeper": 7022,
    " expertise": 7023,
    " possib": 7024,
    " possibility": 7025,
    " toe": 7026,
    " approach": 7027,
    " prevail": 7028,
    " prevailing": 7029,
    " introduc": 7030,
    " introducing": 7031,
    " enlarge": 7032,
    " enlargement": 7033,
    "set": 7034,
    " subsequ": 7035,
    " subsequently": 7036,
    " contig": 7037,
    " contiguous": 7038,
    " executed": 7039,
    " intact": 7040,
    " finally": 7041,
    " sketches": 7042,
    " strateg": 7043,
    " dismantling": 7044,
    " sirdars": 7045,
    "piece": 7046,
    " centimeter": 7047,
    "osite": 7048,
    " panels": 7049,
    " led": 7050,
    " ledge": 7051,
    " pair": 7052,
    " stay": 7053,
    " canopies": 7054,
    " cabs": 7055,
    "pelled": 7056,
    " strain": 7057,
    " steep": 7058,
    "gu": 7059,
    " guarded": 7060,
    " landings": 7061,
    " stationed": 7062,
    " regards": 7063,
    " overhang": 7064,
    "admitted": 7065,
    " indicates": 7066,
    " human": 7067,
    " guid": 7068,
    " guidance": 7069,
    " xi": 7070,
    " classified": 7071,
    " measuring": 7072,
    " accredited": 7073,
    " canv": 7074,
    " canvas": 7075,
    " receptacle": 7076,
    " greas": 7077,
    " greasy": 7078,
    " oily": 7079,
    "cover": 7080,
    "covering": 7081,
    "rop": 7082,
    " goaved": 7083,
    " suppress": 7084,
    " stack": 7085,
    "phy": 7086,
    " expressly": 7087,
    " surf": 7088,
    " surfaces": 7089,
    "mounted": 7090,
    " bolting": 7091,
    " taps": 7092,
    " useful": 7093,
    " permitting": 7094,
    " minimising": 7095,
    " emissions": 7096,
    " sampler": 7097,
    " commissioning": 7098,
    " groups": 7099,
    " pure": 7100,
    " purely": 7101,
    " achieved": 7102,
    " rotation": 7103,
    " disinfected": 7104,
    " diluted": 7105,
    " filtered": 7106,
    "circ": 7107,
    " pattern": 7108,
    " 239": 7109,
    " distinc": 7110,
    " distinctive": 7111,
    " demar": 7112,
    " demarc": 7113,
    " demarcated": 7114,
    " dispers": 7115,
    " bars": 7116,
    " distinctly": 7117,
    "eled": 7118,
    " erup": 7119,
    " eruption": 7120,
    "resp": 7121,
    "whic": 7122,
    "which": 7123,
    " watch": 7124,
    " thus": 7125,
    " interp": 7126,
    " neighbor": 7127,
    " neighborhood": 7128,
    " shortest": 7129,
    " outlines": 7130,
    " 244": 7131,
    "ense": 7132,
    " intends": 7133,
    " lapsed": 7134,
    " threatened": 7135,
    " larg": 7136,
    " largest": 7137,
    " restriction": 7138,
    " acknowledge": 7139,
    " disconnected": 7140,
    " commences": 7141,
    "iery": 7142,
    " splits": 7143,
    "crossings": 7144,
    " contaminated": 7145,
    " electro": 7146,
    " restoring": 7147,
    " casing": 7148,
    " barricaded": 7149,
    " restore": 7150,
    " brush": 7151,
    " waft": 7152,
    " cigare": 7153,
    "washing": 7154,
    "acting": 7155,
    " trim": 7156,
    " explain": 7157,
    " assembled": 7158,
    " recon": 7159,
    "tioned": 7160,
    " gal": 7161,
    " galv": 7162,
    " galvan": 7163,
    " galvanised": 7164,
    " conductive": 7165,
    " kilograms": 7166,
    " thick": 7167,
    "shot": 7168,
    "gment": 7169,
    " connecting": 7170,
    " tamp": 7171,
    " resistance": 7172,
    "spe": 7173,
    " frag": 7174,
    " fragments": 7175,
    " itself": 7176,
    " locating": 7177,
    " amongst": 7178,
    " plugged": 7179,
    " assisting": 7180,
    " combus": 7181,
    " combustion": 7182,
    "receiver": 7183,
    "half": 7184,
    " outer": 7185,
    " transformer": 7186,
    " collector": 7187,
    "rub": 7188,
    " chart": 7189,
    " hoists": 7190,
    " tube": 7191,
    " evaluated": 7192,
    " incorporating": 7193,
    " discontinuation": 7194,
    " separation": 7195,
    " sectional": 7196,
    " tracer": 7197,
    " tubing": 7198,
    " calibration": 7199,
    " uns": 7200,
    " unserv": 7201,
    " unservice": 7202,
    " unserviceable": 7203,
    " manpower": 7204,
    " aboveground": 7205,
    " write": 7206,
    " arrival": 7207,
    " dece": 7208,
    " deceased": 7209,
    " emergencies": 7210,
    " critical": 7211,
    " savings": 7212,
    " repealed": 7213,
    " named": 7214,
    " sized": 7215,
    " preparatory": 7216,
    " secur": 7217,
    " security": 7218,
    " guar": 7219,
    " guarant": 7220,
    " guarantee": 7221,
    " excavated": 7222,
    " winning": 7223,
    " yearly": 7224,
    " carbons": 7225,
    " norms": 7226,
    " potentially": 7227,
    " values": 7228,
    " mixing": 7229,
    " optimum": 7230,
    "sale": 7231,
    "saleable": 7232,
    " ilmenite": 7233,
    " rutile": 7234,
    " sill": 7235,
    " sillim": 7236,
    " sillimanite": 7237,
    " garnet": 7238,
    "ucox": 7239,
    "ucoxen": 7240,
    "ucoxene": 7241,
    " invent": 7242,
    " inventory": 7243,
    " stable": 7244,
    " instead": 7245,
    " intern": 7246,
    " international": 7247,
    " organization": 7248,
    " bringing": 7249,
    " certification": 7250,
    " formats": 7251,
    " refus": 7252,
    " refusal": 7253,
    " hectare": 7254,
    " allied": 7255,
    " 4a": 7256,
    " tribun": 7257,
    " tribunal": 7258,
    " piles": 7259,
    " burden": 7260,
    " impo": 7261,
    " =": 7262,
    " latitude": 7263,
    " agric": 7264,
    " agricult": 7265,
    " agricultural": 7266,
    " ponds": 7267,
    " structural": 7268,
    " g1": 7269,
    " g2": 7270,
    " g3": 7271,
    " adits": 7272,
    " town": 7273,
    " templ": 7274,
    "rul": 7275,
    "rules": 7276,
    " slim": 7277,
    " imperv": 7278,
    " impervious": 7279,
    " leaching": 7280,
    " tox": 7281,
    " tenth": 7282,
    " conniv": 7283,
    " connivance": 7284,
    " arms": 7285,
    " exported": 7286,
    " parties": 7287,
    " latest": 7288,
    " territory": 7289,
    " deployment": 7290,
    " tendered": 7291,
    " affix": 7292,
    " continuing": 7293,
    " imposed": 7294,
    " cust": 7295,
    " specim": 7296,
    " specimens": 7297,
    " marks": 7298,
    " aspec": 7299,
    " aspects": 7300,
    " describ": 7301,
    " 1962": 7302,
    " revise": 7303,
    " anom": 7304,
    " anomaly": 7305,
    " regulatory": 7306,
    " regulated": 7307,
    " construed": 7308,
    " presentation": 7309,
    " expiration": 7310,
    " boxes": 7311,
    " _______________": 7312,
    "nmet": 7313,
    " nonavailability": 7314,
    "appl": 7315,
    "factory": 7316,
    " variety": 7317,
    "ki": 7318,
    " nameand": 7319,
    " exploited": 7320,
    "rehabil": 7321,
    "rehabilitated": 7322,
    "exploiting": 7323,
    "public": 7324,
    "priv": 7325,
    "private": 7326,
    "joint": 7327,
    " graduate": 7328,
    ".(": 7329,
    "salary": 7330,
    "cap": 7331,
    "capital": 7332,
    "shop": 7333,
    " discarded": 7334,
    " iation": 7335,
    ")-": 7336,
    " capitalised": 7337,
    " income": 7338,
    " optional": 7339,
    " desires": 7340,
    "recur": 7341,
    "recurring": 7342,
    "reserve": 7343,
    " loans": 7344,
    " outstanding": 7345,
    " (#)(": 7346,
    "sour": 7347,
    "source": 7348,
    " lending": 7349,
    " nationalised": 7350,
    " kerosene": 7351,
    " cu": 7352,
    " kgs": 7353,
    " tyres": 7354,
    " kits": 7355,
    " spares": 7356,
    " felling": 7357,
    " overheads": 7358,
    "upto": 7359,
    "gun": 7360,
    " powder": 7361,
    "nit": 7362,
    "nitrate": 7363,
    " cartridged": 7364,
    "sl": 7365,
    "slurry": 7366,
    "deton": 7367,
    "detonating": 7368,
    "plastic": 7369,
    " sizes": 7370,
    "item": 7371,
    "items": 7372,
    " cumul": 7373,
    " cumulative": 7374,
    " spac": 7375,
    " spacing": 7376,
    " metr": 7377,
    " metrage": 7378,
    " depletion": 7379,
    "20___": 7380,
    "20____": 7381,
    ")=": 7382,
    " prefeasibility": 7383,
    " 331": 7384,
    " 332": 7385,
    " inferred": 7386,
    " 334": 7387,
    " cutoff": 7388,
    "submit": 7389,
    "mechan": 7390,
    "mechanical": 7391,
    " utilize": 7392,
    " revealing": 7393,
    " rp": 7394,
    " ml": 7395,
    " precise": 7396,
    "borehole": 7397,
    " sr": 7398,
    "do": 7399,
    "door": 7400,
    "street": 7401,
    " citizenship": 7402,
    "yyyy": 7403,
    " directors": 7404,
    " firms": 7405,
    " ion": 7406,
    " itude": 7407,
    " khasra": 7408,
    " numb": 7409,
    " numbe": 7410,
    "stor": 7411,
    "storage": 7412,
    " ------": 7413,
    " -------------": 7414,
    "city": 7415,
    "----------": 7416,
    " registrati": 7417,
    " countr": 7418,
    " openin": 7419,
    " industries": 7420,
    " pig": 7421,
    " fer": 7422,
    " transferee": 7423,
    "bl": 7424,
    "26": 7425,
    "28": 7426,
    "31": 7427,
    " band": 7428,
    " 1985": 7429,
    " serving": 7430,
    "sec": 7431,
    " boad": 7432,
    " camera": 7433,
    "certific": 7434,
    "certificate": 7435,
    " engined": 7436,
    " enginedriver": 7437,
    " miens": 7438,
    " gained": 7439,
    " hon": 7440,
    " allowances": 7441,
    " inqu": 7442,
    " contrary": 7443,
    " 1860": 7444,
    " 400": 7445,
    " 600": 7446,
    " intent": 7447,
    " blasters": 7448,
    " enginemen": 7449,
    "winding": 7450,
    " sollars": 7451,
    " unions": 7452,
    " hanging": 7453,
    " belowgs": 7454,
    " mil": 7455,
    " mic": 7456,
    " laying": 7457,
    " bathing": 7458,
    " hyg": 7459,
    " hygien": 7460,
    " hygienic": 7461,
    " milling": 7462,
    " ceased": 7463,
    " extensive": 7464,
    " carb": 7465,
    " carbide": 7466,
    " licencing": 7467,
    " gunpo": 7468,
    " gunpow": 7469,
    " gunpowder": 7470,
    " igniter": 7471,
    "pieces": 7472,
    " handed": 7473,
    " _": 7474,
    " wilfully": 7475,
    "]:": 7476,
    " sir": 7477,
    "post": 7478,
    " my": 7479,
    " rare": 7480,
    " tant": 7481,
    " salt": 7482,
    "inst": 7483,
    " clerical": 7484,
    " casual": 7485,
    " earning": 7486,
    " basic": 7487,
    " dear": 7488,
    " dearness": 7489,
    " 2n": 7490,
    " 2nd": 7491,
    " provident": 7492,
    " contrib": 7493,
    " contributions": 7494,
    " realised": 7495,
    "4a": 7496,
    "urrence": 7497,
    " else": 7498,
    " elsewhere": 7499,
    " lac": 7500,
    " laceration": 7501,
    " disable": 7502,
    " disablement": 7503,
    " contracted": 7504,
    "itals": 7505,
    " associate": 7506,
    " charter": 7507,
    " 1935": 7508,
    "opencast": 7509,
    " kingdom": 7510,
    " camborne": 7511,
    " wales": 7512,
    " sib": 7513,
    " sibpore": 7514,
    " 1929": 7515,
    " bhag": 7516,
    " bhaga": 7517,
    "ona": 7518,
    "hav": 7519,
    " 1936": 7520,
    " mur": 7521,
    "before": 7522,
    " faculty": 7523,
    " 1966": 7524,
    " empowered": 7525,
    " tramways": 7526,
    " interested": 7527,
    " midnight": 7528,
    "ilment": 7529,
    " servant": 7530,
    " chosen": 7531,
    " accruing": 7532,
    " bonus": 7533,
    " amen": 7534,
    " amenities": 7535,
    " discharging": 7536,
    " borne": 7537,
    " proceeded": 7538,
    " wholes": 7539,
    " wholesome": 7540,
    "boards": 7541,
    " tend": 7542,
    " posting": 7543,
    " pati": 7544,
    " patient": 7545,
    " fav": 7546,
    " favour": 7547,
    " favourable": 7548,
    " preceeding": 7549,
    " positions": 7550,
    " trainees": 7551,
    " father": 7552,
    " hus": 7553,
    " husb": 7554,
    " husband": 7555,
    " dismissed": 7556,
    " quitting": 7557,
    " superannuation": 7558,
    " computed": 7559,
    " ignitions": 7560,
    " brig": 7561,
    " brigades": 7562,
    " sums": 7563,
    " expediency": 7564,
    " speedy": 7565,
    " belief": 7566,
    " punished": 7567,
    " nomination": 7568,
    " prosecut": 7569,
    " prosecutor": 7570,
    " transit": 7571,
    " sro": 7572,
    " cante": 7573,
    " canteens": 7574,
    "1957": 7575,
    "may": 7576,
    " fifth": 7577,
    " reim": 7578,
    " reimbur": 7579,
    " allop": 7580,
    " allopath": 7581,
    " allopathic": 7582,
    " fraction": 7583,
    " receptacles": 7584,
    " dispensary": 7585,
    " hospital": 7586,
    " compounder": 7587,
    " dt": 7588,
    "profit": 7589,
    "apt": 7590,
    "1966": 7591,
    "ray": 7592,
    " absentees": 7593,
    " instalment": 7594,
    " paym": 7595,
    ")**": 7596,
    " eyes": 7597,
    "cms": 7598,
    " circulatory": 7599,
    " abdom": 7600,
    " fits": 7601,
    " ep": 7602,
    " epile": 7603,
    " epileps": 7604,
    " epilepsy": 7605,
    " hydrocele": 7606,
    "agram": 7607,
    " lung": 7608,
    " tu": 7609,
    " tuber": 7610,
    " tuberc": 7611,
    " tubercul": 7612,
    " tuberculos": 7613,
    " tuberculosis": 7614,
    "hospital": 7615,
    " 11b": 7616,
    " 11c": 7617,
    " 12a": 7618,
    " reservation": 7619,
    " renewals": 7620,
    "2016": 7621,
    "].]": 7622,
    "third": 7623,
    "three": 7624,
    " select": 7625,
    ",]": 7626,
    "quarry": 7627,
    " legis": 7628,
    " legisl": 7629,
    " legislature": 7630,
    " tres": 7631,
    " trespass": 7632,
    " 1974": 7633,
    " sentences": 7634,
    " apatite": 7635,
    " zero": 7636,
    " nic": 7637,
    " nicke": 7638,
    " nickel": 7639,
    " paragra": 7640,
    " paragraph": 7641,
    "3300": 7642,
    "33004": 7643,
    " iz": 7644,
    "kf": 7645,
    " 954": 7646,
    "zg": 7647,
    " 1939": 7648,
    " nove": 7649,
    " novem": 7650,
    " november": 7651,
    " 111144444444": 7652,
    "1952": 7653,
    " 773": 7654,
    " 2011": 7655,
    " .)\"": 7656,
    "xv": 7657,
    "xvi": 7658,
    "xvii": 7659,
    "xviii": 7660,
    "xix": 7661,
    "<<": 7662,
    "hh": 7663,
    " 22226666": 7664,
    "333": 7665,
    " 44448888": 7666,
    " bb00": 7667,
    " bb00bb": 7668,
    " bb00bb00": 7669,
    "c0c0": 7670,
    " \"-": 7671,
    "\\\\": 7672,
    " ^^": 7673,
    " ^^^^": 7674,
    " hk": 7675,
    " [;": 7676,
    " rr": 7677,
    " uu": 7678,
    "fff": 7679,
    " \\,": 7680,
    " /)": 7681,
    " 117": 7682,
    " $": 7683,
    " ;-": 7684,
    " 124": 7685,
    " hi": 7686,
    " 134": 7687,
    " gg": 7688,
    "290": 7689,
    "29012": 7690,
    "2006": 7691,
    " whereas": 7692,
    " inviting": 7693,
    " now": 7694,
    " supersession": 7695,
    "amm": 7696,
    " forcing": 7697,
    " exhausting": 7698,
    " anth": 7699,
    "cmm": 7700,
    " designer": 7701,
    " designs": 7702,
    " inbye": 7703,
    " fume": 7704,
    " va": 7705,
    " vapo": 7706,
    " vapour": 7707,
    "za": 7708,
    " cav": 7709,
    " cavities": 7710,
    " plying": 7711,
    " dred": 7712,
    " dredging": 7713,
    " ripp": 7714,
    " ripping": 7715,
    " grading": 7716,
    " compressor": 7717,
    " converting": 7718,
    "izing": 7719,
    " converted": 7720,
    " manufactures": 7721,
    "graphical": 7722,
    " seasonal": 7723,
    " peren": 7724,
    " perenn": 7725,
    " perennial": 7726,
    " likeli": 7727,
    " likelihood": 7728,
    " unw": 7729,
    " unwan": 7730,
    " unwanted": 7731,
    " potential": 7732,
    " conse": 7733,
    " consequ": 7734,
    " freely": 7735,
    " blasted": 7736,
    " meanings": 7737,
    " unfore": 7738,
    " unforese": 7739,
    " unforeseen": 7740,
    " shareholder": 7741,
    " bump": 7742,
    " ax": 7743,
    " axle": 7744,
    " gearing": 7745,
    " exhibition": 7746,
    " returning": 7747,
    " contracts": 7748,
    "appoint": 7749,
    "appointment": 7750,
    "onstitute": 7751,
    " urgency": 7752,
    " discussion": 7753,
    " holid": 7754,
    " discre": 7755,
    " discretion": 7756,
    " kinds": 7757,
    " periodicals": 7758,
    " refundable": 7759,
    " died": 7760,
    " errone": 7761,
    " erroneously": 7762,
    " realisation": 7763,
    " incompetent": 7764,
    " corresponds": 7765,
    "shall": 7766,
    " kilometers": 7767,
    " necessitate": 7768,
    " prolong": 7769,
    " prolonged": 7770,
    " outgoing": 7771,
    " incoming": 7772,
    " technic": 7773,
    " technicians": 7774,
    " afterno": 7775,
    " afternoon": 7776,
    " authoris": 7777,
    " authorisations": 7778,
    " ones": 7779,
    " preventive": 7780,
    " combat": 7781,
    " evacuated": 7782,
    " foresee": 7783,
    " foreseeable": 7784,
    " disast": 7785,
    " disasters": 7786,
    " biological": 7787,
    " adverse": 7788,
    " accurately": 7789,
    " properties": 7790,
    " hazardous": 7791,
    " identifying": 7792,
    " incidents": 7793,
    " remedies": 7794,
    " marking": 7795,
    " omissions": 7796,
    " depute": 7797,
    " fort": 7798,
    " fortnight": 7799,
    " unav": 7800,
    " unavo": 7801,
    " unavoid": 7802,
    " unavoidable": 7803,
    " diary": 7804,
    " sco": 7805,
    " scope": 7806,
    " delegate": 7807,
    "either": 7808,
    " recru": 7809,
    " 182": 7810,
    " analyse": 7811,
    " pinpo": 7812,
    " pinpoint": 7813,
    " sta": 7814,
    "tics": 7815,
    " appr": 7816,
    " lect": 7817,
    " lectures": 7818,
    " organise": 7819,
    " programmes": 7820,
    " travelable": 7821,
    " crossings": 7822,
    " quotient": 7823,
    " dusting": 7824,
    " corrected": 7825,
    " baromet": 7826,
    "cutting": 7827,
    " spraying": 7828,
    " advanced": 7829,
    " infringe": 7830,
    " tramlines": 7831,
    " graded": 7832,
    " ballasted": 7833,
    " runway": 7834,
    " jig": 7835,
    " acquainted": 7836,
    " seeing": 7837,
    " woodcut": 7838,
    " woodcuttings": 7839,
    "recording": 7840,
    " derange": 7841,
    " derangement": 7842,
    "gau": 7843,
    "gauge": 7844,
    " neat": 7845,
    " facts": 7846,
    " waterlogged": 7847,
    " doubts": 7848,
    " absolve": 7849,
    " electricians": 7850,
    " jerk": 7851,
    " stationery": 7852,
    " prete": 7853,
    " pretext": 7854,
    " disobe": 7855,
    " disobeys": 7856,
    " smoothly": 7857,
    " hears": 7858,
    " happ": 7859,
    " happening": 7860,
    " listen": 7861,
    " signaler": 7862,
    " blocking": 7863,
    " drags": 7864,
    " headl": 7865,
    " headlights": 7866,
    " intercepted": 7867,
    " unattended": 7868,
    " housed": 7869,
    " handles": 7870,
    " pus": 7871,
    " pushed": 7872,
    " shun": 7873,
    " shunter": 7874,
    " discovers": 7875,
    " dragline": 7876,
    " shovel": 7877,
    "sy": 7878,
    "system": 7879,
    "systems": 7880,
    " lubricants": 7881,
    " overta": 7882,
    " safely": 7883,
    " stripping": 7884,
    " look": 7885,
    " corner": 7886,
    "loaded": 7887,
    " inked": 7888,
    " plotting": 7889,
    " waterm": 7890,
    " watermain": 7891,
    "measure": 7892,
    " hade": 7893,
    "current": 7894,
    " signify": 7895,
    " signifying": 7896,
    "danger": 7897,
    " hil": 7898,
    " hilly": 7899,
    " terrain": 7900,
    " junction": 7901,
    " noting": 7902,
    "dams": 7903,
    " serially": 7904,
    " copied": 7905,
    " afresh": 7906,
    " kilometer": 7907,
    " clearances": 7908,
    " stretc": 7909,
    " stretcher": 7910,
    " perceptible": 7911,
    " overlapping": 7912,
    "fast": 7913,
    "fasts": 7914,
    " rungs": 7915,
    " obstructed": 7916,
    "establ": 7917,
    "established": 7918,
    " message": 7919,
    " rings": 7920,
    " 201": 7921,
    " firmly": 7922,
    " regularity": 7923,
    " subt": 7924,
    " subtend": 7925,
    " groo": 7926,
    " grooves": 7927,
    " rotate": 7928,
    " flanges": 7929,
    " conical": 7930,
    " coil": 7931,
    " coiling": 7932,
    " uneven": 7933,
    " unevenly": 7934,
    " winder": 7935,
    " strained": 7936,
    " midshaft": 7937,
    " downwards": 7938,
    " 202": 7939,
    "operated": 7940,
    " screw": 7941,
    "valve": 7942,
    " revolutions": 7943,
    " hind": 7944,
    " 203": 7945,
    " cheese": 7946,
    "weights": 7947,
    "amps": 7948,
    " dogs": 7949,
    " runners": 7950,
    " sprung": 7951,
    " winders": 7952,
    " folding": 7953,
    "chains": 7954,
    "bol": 7955,
    "bolt": 7956,
    " breaks": 7957,
    " slight": 7958,
    "clut": 7959,
    "clutches": 7960,
    " interlocking": 7961,
    " resting": 7962,
    "bell": 7963,
    " geared": 7964,
    " overs": 7965,
    " overspe": 7966,
    " overspeeding": 7967,
    "determ": 7968,
    "determined": 7969,
    " 205": 7970,
    " outwards": 7971,
    " strongly": 7972,
    " deck": 7973,
    " approxim": 7974,
    "decks": 7975,
    " decks": 7976,
    " conveyed": 7977,
    " imple": 7978,
    " implements": 7979,
    " stea": 7980,
    " steadi": 7981,
    " steadied": 7982,
    " rider": 7983,
    " 207": 7984,
    " swinging": 7985,
    "spin": 7986,
    "spinning": 7987,
    " conjunction": 7988,
    " sparing": 7989,
    " 208": 7990,
    " rivets": 7991,
    " millimeter": 7992,
    " melting": 7993,
    " untw": 7994,
    " untwisted": 7995,
    " thread": 7996,
    " threaded": 7997,
    " avoided": 7998,
    " tear": 7999
  },
  "merges": [
    [
      "i",
      "n"
    ],
    [
      " ",
      "t"
    ],
    [
      " ",
      "a"
    ],
    [
      " ",
      "o"
    ],
    [
      "h",
      "e"
    ],
    [
      " ",
      "s"
    ],
    [
      "e",
      "r"
    ],
    [
      " t",
      "he"
    ],
    [
      "r",
      "e"
    ],
    [
      "o",
      "n"
    ],
    [
      " o",
      "f"
    ],
    [
      " ",
      "m"
    ],
    [
      " ",
      "p"
    ],
    [
      " ",
      "b"
    ],
    [
      "t",
      "i"
    ],
    [
      "a",
      "l"
    ],
    [
      " ",
      "c"
    ],
    [
      "e",
      "n"
    ],
    [
      "e",
      "d"
    ],
    [
      " ",
      "in"
    ],
    [
      " ",
      "("
    ],
    [
      " a",
      "n"
    ],
    [
      "o",
      "r"
    ],
    [
      "in",
      "g"
    ],
    [
      " ",
      "w"
    ],
    [
      "a",
      "n"
    ],
    [
      " o",
      "r"
    ],
    [
      "ti",
      "on"
    ],
    [
      " ",
      "f"
    ],
    [
      "i",
      "s"
    ],
    [
      " ",
      "d"
    ],
    [
      "a",
      "t"
    ],
    [
      "e",
      "s"
    ],
    [
      " b",
      "e"
    ],
    [
      " an",
      "d"
    ],
    [
      "e",
      "c"
    ],
    [
      "r",
      "o"
    ],
    [
      " ",
      "e"
    ],
    [
      "i",
      "t"
    ],
    [
      " ",
      "re"
    ],
    [
      " s",
      "h"
    ],
    [
      " t",
      "o"
    ],
    [
      " ",
      "h"
    ],
    [
      "i",
      "c"
    ],
    [
      "al",
      "l"
    ],
    [
      "a",
      "r"
    ],
    [
      " s",
      "u"
    ],
    [
      "en",
      "t"
    ],
    [
      " sh",
      "all"
    ],
    [
      "a",
      "tion"
    ],
    [
      " ",
      "n"
    ],
    [
      " m",
      "in"
    ],
    [
      " ",
      "l"
    ],
    [
      " ",
      ","
    ],
    [
      "c",
      "e"
    ],
    [
      "a",
      "s"
    ],
    [
      "u",
      "n"
    ],
    [
      "_",
      "_"
    ],
    [
      " ",
      "g"
    ],
    [
      " t",
      "h"
    ],
    [
      " ",
      ";"
    ],
    [
      " m",
      "a"
    ],
    [
      "er",
      "s"
    ],
    [
      " f",
      "or"
    ],
    [
      "c",
      "h"
    ],
    [
      "u",
      "l"
    ],
    [
      " ",
      "/"
    ],
    [
      "p",
      "ec"
    ],
    [
      " p",
      "ro"
    ],
    [
      " n",
      "o"
    ],
    [
      " an",
      "y"
    ],
    [
      "l",
      "o"
    ],
    [
      " e",
      "x"
    ],
    [
      " b",
      "y"
    ],
    [
      "e",
      "t"
    ],
    [
      " ",
      "4"
    ],
    [
      "v",
      "er"
    ],
    [
      "i",
      "d"
    ],
    [
      " a",
      "s"
    ],
    [
      " c",
      "on"
    ],
    [
      "at",
      "e"
    ],
    [
      "v",
      "e"
    ],
    [
      "u",
      "r"
    ],
    [
      "un",
      "d"
    ],
    [
      " c",
      "o"
    ],
    [
      "u",
      "s"
    ],
    [
      " ",
      "1"
    ],
    [
      "a",
      "g"
    ],
    [
      "m",
      "p"
    ],
    [
      "i",
      "f"
    ],
    [
      "l",
      "e"
    ],
    [
      " su",
      "ch"
    ],
    [
      "he",
      "r"
    ],
    [
      "it",
      "h"
    ],
    [
      ".",
      "."
    ],
    [
      "ers",
      "on"
    ],
    [
      " p",
      "erson"
    ],
    [
      "s",
      "pec"
    ],
    [
      "m",
      "ent"
    ],
    [
      " min",
      "e"
    ],
    [
      "p",
      "p"
    ],
    [
      " ",
      "is"
    ],
    [
      "r",
      "a"
    ],
    [
      "u",
      "t"
    ],
    [
      " w",
      "ith"
    ],
    [
      " ",
      ")"
    ],
    [
      "t",
      "her"
    ],
    [
      "spec",
      "t"
    ],
    [
      "i",
      "l"
    ],
    [
      "a",
      "m"
    ],
    [
      "s",
      "t"
    ],
    [
      "__",
      "__"
    ],
    [
      "q",
      "u"
    ],
    [
      " o",
      "n"
    ],
    [
      " ma",
      "y"
    ],
    [
      " s",
      "t"
    ],
    [
      " w",
      "or"
    ],
    [
      "i",
      "on"
    ],
    [
      " wor",
      "k"
    ],
    [
      " a",
      "t"
    ],
    [
      " su",
      "b"
    ],
    [
      " o",
      "ther"
    ],
    [
      " w",
      "h"
    ],
    [
      "l",
      "y"
    ],
    [
      "i",
      "r"
    ],
    [
      " pro",
      "v"
    ],
    [
      "c",
      "t"
    ],
    [
      "f",
      "ic"
    ],
    [
      " th",
      "at"
    ],
    [
      "und",
      "er"
    ],
    [
      "es",
      "s"
    ],
    [
      " no",
      "t"
    ],
    [
      " ",
      "he"
    ],
    [
      "i",
      "i"
    ],
    [
      " re",
      "g"
    ],
    [
      " a",
      "l"
    ],
    [
      " ",
      "-"
    ],
    [
      " m",
      "an"
    ],
    [
      "s",
      "e"
    ],
    [
      "i",
      "m"
    ],
    [
      " a",
      "pp"
    ],
    [
      " ",
      "2"
    ],
    [
      " ",
      "under"
    ],
    [
      "re",
      "s"
    ],
    [
      " ",
      "en"
    ],
    [
      "t",
      "ed"
    ],
    [
      "as",
      "e"
    ],
    [
      " c",
      "h"
    ],
    [
      "ver",
      "y"
    ],
    [
      " w",
      "he"
    ],
    [
      "i",
      "g"
    ],
    [
      "t",
      "er"
    ],
    [
      " e",
      "very"
    ],
    [
      "a",
      "y"
    ],
    [
      "b",
      "le"
    ],
    [
      " p",
      "l"
    ],
    [
      " p",
      "er"
    ],
    [
      " ",
      "3"
    ],
    [
      "d",
      "e"
    ],
    [
      "i",
      "re"
    ],
    [
      "ul",
      "ation"
    ],
    [
      " in",
      "spect"
    ],
    [
      "er",
      "al"
    ],
    [
      " l",
      "e"
    ],
    [
      " the",
      "re"
    ],
    [
      " man",
      "ag"
    ],
    [
      "p",
      "er"
    ],
    [
      " inspect",
      "or"
    ],
    [
      "an",
      "ce"
    ],
    [
      " ",
      "r"
    ],
    [
      "in",
      "e"
    ],
    [
      " ",
      "7"
    ],
    [
      "u",
      "re"
    ],
    [
      " d",
      "e"
    ],
    [
      "ro",
      "m"
    ],
    [
      "ec",
      "tion"
    ],
    [
      " prov",
      "id"
    ],
    [
      " b",
      "o"
    ],
    [
      "d",
      "i"
    ],
    [
      "a",
      "f"
    ],
    [
      " ",
      "\""
    ],
    [
      " wh",
      "ic"
    ],
    [
      "d",
      "ing"
    ],
    [
      "a",
      "in"
    ],
    [
      " ",
      ":"
    ],
    [
      " whic",
      "h"
    ],
    [
      " manag",
      "er"
    ],
    [
      "is",
      "t"
    ],
    [
      " f",
      "rom"
    ],
    [
      " ",
      "v"
    ],
    [
      "i",
      "v"
    ],
    [
      "k",
      "e"
    ],
    [
      "o",
      "l"
    ],
    [
      "lo",
      "w"
    ],
    [
      " provid",
      "ed"
    ],
    [
      " a",
      "re"
    ],
    [
      " s",
      "pec"
    ],
    [
      "u",
      "m"
    ],
    [
      "a",
      "ble"
    ],
    [
      "i",
      "ed"
    ],
    [
      "o",
      "re"
    ],
    [
      " min",
      "ing"
    ],
    [
      " ",
      "z"
    ],
    [
      "an",
      "s"
    ],
    [
      " con",
      "t"
    ],
    [
      " ",
      "q"
    ],
    [
      " m",
      "e"
    ],
    [
      "t",
      "h"
    ],
    [
      " min",
      "eral"
    ],
    [
      "d",
      "er"
    ],
    [
      " work",
      "ing"
    ],
    [
      "ec",
      "t"
    ],
    [
      "ar",
      "t"
    ],
    [
      "i",
      "al"
    ],
    [
      " ",
      "un"
    ],
    [
      " co",
      "mp"
    ],
    [
      "i",
      "e"
    ],
    [
      "p",
      "o"
    ],
    [
      " ",
      "ro"
    ],
    [
      " h",
      "a"
    ],
    [
      "w",
      "n"
    ],
    [
      " ",
      "if"
    ],
    [
      " whe",
      "re"
    ],
    [
      " ",
      "it"
    ],
    [
      "c",
      "c"
    ],
    [
      " p",
      "re"
    ],
    [
      " ",
      "us"
    ],
    [
      " ",
      "+"
    ],
    [
      " th",
      "an"
    ],
    [
      "____",
      "____"
    ],
    [
      " spec",
      "if"
    ],
    [
      " en",
      "g"
    ],
    [
      "p",
      "t"
    ],
    [
      "m",
      "it"
    ],
    [
      "ag",
      "e"
    ],
    [
      "ic",
      "al"
    ],
    [
      "a",
      "ce"
    ],
    [
      " c",
      "ase"
    ],
    [
      "en",
      "ce"
    ],
    [
      "g",
      "e"
    ],
    [
      " al",
      "l"
    ],
    [
      " g",
      "o"
    ],
    [
      " p",
      "o"
    ],
    [
      "ig",
      "n"
    ],
    [
      "tion",
      "s"
    ],
    [
      "a",
      "d"
    ],
    [
      "o",
      "d"
    ],
    [
      " reg",
      "ulation"
    ],
    [
      " s",
      "e"
    ],
    [
      " a",
      "ct"
    ],
    [
      " s",
      "o"
    ],
    [
      "ti",
      "fic"
    ],
    [
      " m",
      "et"
    ],
    [
      " person",
      "s"
    ],
    [
      "at",
      "ed"
    ],
    [
      " c",
      "er"
    ],
    [
      "-",
      "-"
    ],
    [
      "ie",
      "f"
    ],
    [
      "..",
      ".."
    ],
    [
      "in",
      "t"
    ],
    [
      " ",
      "i"
    ],
    [
      "am",
      "e"
    ],
    [
      "ar",
      "y"
    ],
    [
      " eng",
      "ine"
    ],
    [
      " ch",
      "ief"
    ],
    [
      "o",
      "m"
    ],
    [
      "or",
      "t"
    ],
    [
      " a",
      "g"
    ],
    [
      "e",
      "ar"
    ],
    [
      "0",
      "0"
    ],
    [
      "lo",
      "y"
    ],
    [
      "ent",
      "r"
    ],
    [
      " e",
      "mp"
    ],
    [
      " be",
      "low"
    ],
    [
      " s",
      "ection"
    ],
    [
      " sh",
      "o"
    ],
    [
      "is",
      "ion"
    ],
    [
      " emp",
      "loy"
    ],
    [
      " ex",
      "p"
    ],
    [
      "or",
      "d"
    ],
    [
      "r",
      "it"
    ],
    [
      " min",
      "es"
    ],
    [
      "ti",
      "c"
    ],
    [
      "a",
      "c"
    ],
    [
      "r",
      "ic"
    ],
    [
      " or",
      "der"
    ],
    [
      " p",
      "ur"
    ],
    [
      "an",
      "d"
    ],
    [
      "an",
      "t"
    ],
    [
      "it",
      "y"
    ],
    [
      "u",
      "c"
    ],
    [
      "ar",
      "d"
    ],
    [
      "ation",
      "s"
    ],
    [
      " ex",
      "am"
    ],
    [
      " o",
      "wn"
    ],
    [
      " th",
      "is"
    ],
    [
      "ro",
      "und"
    ],
    [
      " d",
      "ay"
    ],
    [
      " re",
      "qu"
    ],
    [
      "o",
      "us"
    ],
    [
      " h",
      "is"
    ],
    [
      " ma",
      "de"
    ],
    [
      " go",
      "ver"
    ],
    [
      " gover",
      "n"
    ],
    [
      " govern",
      "ment"
    ],
    [
      " of",
      "fic"
    ],
    [
      " p",
      "art"
    ],
    [
      " w",
      "rit"
    ],
    [
      "p",
      "e"
    ],
    [
      "r",
      "i"
    ],
    [
      " o",
      "per"
    ],
    [
      " cer",
      "tific"
    ],
    [
      " ",
      "5"
    ],
    [
      " ",
      "y"
    ],
    [
      " pur",
      "po"
    ],
    [
      "1",
      "1"
    ],
    [
      " t",
      "im"
    ],
    [
      "in",
      "ation"
    ],
    [
      " re",
      "c"
    ],
    [
      " a",
      "b"
    ],
    [
      " ex",
      "ce"
    ],
    [
      " re",
      "s"
    ],
    [
      "as",
      "t"
    ],
    [
      "b",
      "er"
    ],
    [
      " writ",
      "ing"
    ],
    [
      " h",
      "as"
    ],
    [
      " ",
      "x"
    ],
    [
      " l",
      "o"
    ],
    [
      "f",
      "er"
    ],
    [
      "en",
      "c"
    ],
    [
      "re",
      "d"
    ],
    [
      "at",
      "er"
    ],
    [
      " re",
      "p"
    ],
    [
      " own",
      "er"
    ],
    [
      " a",
      "ut"
    ],
    [
      " o",
      "ut"
    ],
    [
      "en",
      "d"
    ],
    [
      " a",
      "cc"
    ],
    [
      " certific",
      "ate"
    ],
    [
      " su",
      "r"
    ],
    [
      " ex",
      "t"
    ],
    [
      "f",
      "or"
    ],
    [
      " requ",
      "ire"
    ],
    [
      "h",
      "or"
    ],
    [
      " me",
      "ans"
    ],
    [
      "t",
      "e"
    ],
    [
      "o",
      "f"
    ],
    [
      " ",
      "6"
    ],
    [
      " a",
      "f"
    ],
    [
      " r",
      "ul"
    ],
    [
      " ",
      "%"
    ],
    [
      " in",
      "c"
    ],
    [
      " ",
      "?"
    ],
    [
      "a",
      "id"
    ],
    [
      "i",
      "p"
    ],
    [
      " s",
      "af"
    ],
    [
      " y",
      "ear"
    ],
    [
      " ",
      "qu"
    ],
    [
      "re",
      "g"
    ],
    [
      " le",
      "ase"
    ],
    [
      "l",
      "l"
    ],
    [
      "ti",
      "ve"
    ],
    [
      " with",
      "in"
    ],
    [
      " d",
      "is"
    ],
    [
      "il",
      "l"
    ],
    [
      " ",
      "k"
    ],
    [
      "ain",
      "ed"
    ],
    [
      "ti",
      "t"
    ],
    [
      " c",
      "l"
    ],
    [
      "af",
      "t"
    ],
    [
      " in",
      "di"
    ],
    [
      " tim",
      "e"
    ],
    [
      " aut",
      "hor"
    ],
    [
      " co",
      "m"
    ],
    [
      " ",
      "["
    ],
    [
      " a",
      "d"
    ],
    [
      "ve",
      "y"
    ],
    [
      " ",
      "ke"
    ],
    [
      "reg",
      "ulation"
    ],
    [
      " sh",
      "aft"
    ],
    [
      " purpo",
      "se"
    ],
    [
      " prov",
      "ision"
    ],
    [
      "for",
      "m"
    ],
    [
      "ti",
      "l"
    ],
    [
      " s",
      "ec"
    ],
    [
      " con",
      "di"
    ],
    [
      " s",
      "ign"
    ],
    [
      "a",
      "il"
    ],
    [
      " us",
      "ed"
    ],
    [
      "e",
      "m"
    ],
    [
      "i",
      "ve"
    ],
    [
      " d",
      "ist"
    ],
    [
      " pl",
      "ace"
    ],
    [
      " p",
      "res"
    ],
    [
      " c",
      "ar"
    ],
    [
      "ti",
      "es"
    ],
    [
      "ur",
      "ing"
    ],
    [
      "as",
      "s"
    ],
    [
      "ra",
      "c"
    ],
    [
      " for",
      "m"
    ],
    [
      " o",
      "p"
    ],
    [
      " day",
      "s"
    ],
    [
      "j",
      "ect"
    ],
    [
      " 1",
      "9"
    ],
    [
      " exam",
      "ination"
    ],
    [
      " on",
      "e"
    ],
    [
      " ",
      "ii"
    ],
    [
      "re",
      "e"
    ],
    [
      " ag",
      "ent"
    ],
    [
      " d",
      "ate"
    ],
    [
      " ma",
      "int"
    ],
    [
      " be",
      "en"
    ],
    [
      "he",
      "d"
    ],
    [
      " mineral",
      "s"
    ],
    [
      "et",
      "y"
    ],
    [
      "v",
      "ed"
    ],
    [
      "m",
      "an"
    ],
    [
      " t",
      "a"
    ],
    [
      " no",
      "ti"
    ],
    [
      "i",
      "od"
    ],
    [
      "a",
      "us"
    ],
    [
      "ig",
      "h"
    ],
    [
      " d",
      "u"
    ],
    [
      " per",
      "iod"
    ],
    [
      "um",
      "ber"
    ],
    [
      "spect",
      "ing"
    ],
    [
      "g",
      "round"
    ],
    [
      "is",
      "s"
    ],
    [
      " pro",
      "specting"
    ],
    [
      " specif",
      "ied"
    ],
    [
      "lo",
      "s"
    ],
    [
      " whe",
      "n"
    ],
    [
      " h",
      "ol"
    ],
    [
      " st",
      "ate"
    ],
    [
      " ke",
      "pt"
    ],
    [
      " app",
      "ro"
    ],
    [
      " inc",
      "l"
    ],
    [
      " n",
      "umber"
    ],
    [
      " saf",
      "ety"
    ],
    [
      " n",
      "ame"
    ],
    [
      " there",
      "of"
    ],
    [
      " regulation",
      "s"
    ],
    [
      " d",
      "uring"
    ],
    [
      "is",
      "ed"
    ],
    [
      " wh",
      "o"
    ],
    [
      "ion",
      "al"
    ],
    [
      " comp",
      "et"
    ],
    [
      "o",
      "ur"
    ],
    [
      " as",
      "s"
    ],
    [
      " employ",
      "ed"
    ],
    [
      " l",
      "a"
    ],
    [
      " d",
      "et"
    ],
    [
      " engine",
      "er"
    ],
    [
      " condi",
      "tions"
    ],
    [
      " app",
      "o"
    ],
    [
      " reg",
      "ional"
    ],
    [
      " provision",
      "s"
    ],
    [
      "u",
      "b"
    ],
    [
      " specif",
      "y"
    ],
    [
      "f",
      "ore"
    ],
    [
      " l",
      "ess"
    ],
    [
      "l",
      "ess"
    ],
    [
      ")",
      ","
    ],
    [
      " g",
      "en"
    ],
    [
      "w",
      "ay"
    ],
    [
      " sub",
      "ject"
    ],
    [
      "t",
      "o"
    ],
    [
      "u",
      "p"
    ],
    [
      "2",
      "2"
    ],
    [
      " working",
      "s"
    ],
    [
      " st",
      "o"
    ],
    [
      " there",
      "in"
    ],
    [
      "c",
      "k"
    ],
    [
      " m",
      "on"
    ],
    [
      "igh",
      "t"
    ],
    [
      " con",
      "c"
    ],
    [
      "k",
      "k"
    ],
    [
      " be",
      "fore"
    ],
    [
      " ha",
      "ve"
    ],
    [
      " compet",
      "ent"
    ],
    [
      " us",
      "e"
    ],
    [
      "us",
      "t"
    ],
    [
      " d",
      "o"
    ],
    [
      " h",
      "im"
    ],
    [
      " w",
      "in"
    ],
    [
      " app",
      "l"
    ],
    [
      "a",
      "ch"
    ],
    [
      "entr",
      "al"
    ],
    [
      " t",
      "w"
    ],
    [
      " car",
      "r"
    ],
    [
      " l",
      "ic"
    ],
    [
      " c",
      "entral"
    ],
    [
      "an",
      "g"
    ],
    [
      "9",
      "9"
    ],
    [
      " con",
      "s"
    ],
    [
      " un",
      "less"
    ],
    [
      " re",
      "spect"
    ],
    [
      "es",
      "t"
    ],
    [
      " pl",
      "an"
    ],
    [
      " ",
      "j"
    ],
    [
      " noti",
      "ce"
    ],
    [
      "@",
      "@"
    ],
    [
      "is",
      "e"
    ],
    [
      " f",
      "ir"
    ],
    [
      " d",
      "ire"
    ],
    [
      "s",
      "i"
    ],
    [
      " ab",
      "o"
    ],
    [
      " bo",
      "ard"
    ],
    [
      "aus",
      "e"
    ],
    [
      " pre",
      "v"
    ],
    [
      " ma",
      "ch"
    ],
    [
      " require",
      "d"
    ],
    [
      "u",
      "e"
    ],
    [
      " m",
      "ore"
    ],
    [
      "8",
      "8"
    ],
    [
      " h",
      "kk"
    ],
    [
      " ch",
      "ar"
    ],
    [
      " rul",
      "es"
    ],
    [
      "a",
      "p"
    ],
    [
      " the",
      "se"
    ],
    [
      "i",
      "es"
    ],
    [
      " per",
      "mit"
    ],
    [
      " t",
      "r"
    ],
    [
      " d",
      "r"
    ],
    [
      "a",
      "u"
    ],
    [
      "r",
      "an"
    ],
    [
      "ric",
      "t"
    ],
    [
      " f",
      "ire"
    ],
    [
      "a",
      "z"
    ],
    [
      "ur",
      "n"
    ],
    [
      " o",
      "ver"
    ],
    [
      " oper",
      "ations"
    ],
    [
      " su",
      "pp"
    ],
    [
      "ec",
      "h"
    ],
    [
      " s",
      "c"
    ],
    [
      " ",
      "."
    ],
    [
      "ii",
      "i"
    ],
    [
      "at",
      "ing"
    ],
    [
      "at",
      "or"
    ],
    [
      " rec",
      "ord"
    ],
    [
      " cont",
      "ro"
    ],
    [
      "s",
      "o"
    ],
    [
      " ",
      "ra"
    ],
    [
      " af",
      "ter"
    ],
    [
      "en",
      "til"
    ],
    [
      "s",
      "ection"
    ],
    [
      " v",
      "entil"
    ],
    [
      "________",
      "________"
    ],
    [
      " offic",
      "ial"
    ],
    [
      " e",
      "f"
    ],
    [
      "m",
      "o"
    ],
    [
      " in",
      "st"
    ],
    [
      " exce",
      "ed"
    ],
    [
      "res",
      "s"
    ],
    [
      " m",
      "ed"
    ],
    [
      " re",
      "fer"
    ],
    [
      " rep",
      "ort"
    ],
    [
      "i",
      "x"
    ],
    [
      ")",
      "."
    ],
    [
      " below",
      "ground"
    ],
    [
      "er",
      "y"
    ],
    [
      "u",
      "g"
    ],
    [
      " e",
      "l"
    ],
    [
      " mon",
      "th"
    ],
    [
      " incl",
      "u"
    ],
    [
      " maint",
      "ained"
    ],
    [
      " t",
      "ra"
    ],
    [
      "i",
      "ous"
    ],
    [
      "k",
      "en"
    ],
    [
      "fic",
      "i"
    ],
    [
      " exce",
      "pt"
    ],
    [
      "--",
      "--"
    ],
    [
      "u",
      "ct"
    ],
    [
      " a",
      "ir"
    ],
    [
      " in",
      "s"
    ],
    [
      " in",
      "ter"
    ],
    [
      " m",
      "ater"
    ],
    [
      " o",
      "b"
    ],
    [
      " e",
      "qu"
    ],
    [
      " ro",
      "ad"
    ],
    [
      " mater",
      "ial"
    ],
    [
      " mach",
      "in"
    ],
    [
      "ul",
      "ar"
    ],
    [
      " gen",
      "eral"
    ],
    [
      "in",
      "ted"
    ],
    [
      "d",
      "uc"
    ],
    [
      " dist",
      "rict"
    ],
    [
      "t",
      "y"
    ],
    [
      " al",
      "so"
    ],
    [
      "v",
      "ing"
    ],
    [
      "w",
      "er"
    ],
    [
      "ic",
      "ation"
    ],
    [
      " sho",
      "t"
    ],
    [
      "a",
      "b"
    ],
    [
      " ",
      "...."
    ],
    [
      "v",
      "en"
    ],
    [
      " are",
      "a"
    ],
    [
      " med",
      "ical"
    ],
    [
      " com",
      "m"
    ],
    [
      " indi",
      "a"
    ],
    [
      " d",
      "ust"
    ],
    [
      " g",
      "as"
    ],
    [
      " appo",
      "inted"
    ],
    [
      "ec",
      "tive"
    ],
    [
      " tw",
      "o"
    ],
    [
      " s",
      "ame"
    ],
    [
      " s",
      "a"
    ],
    [
      "ug",
      "h"
    ],
    [
      " bo",
      "und"
    ],
    [
      " re",
      "l"
    ],
    [
      "on",
      "n"
    ],
    [
      " ",
      ".."
    ],
    [
      "c",
      "ri"
    ],
    [
      "e",
      "e"
    ],
    [
      " 2",
      "0"
    ],
    [
      " abo",
      "ve"
    ],
    [
      "ec",
      "ess"
    ],
    [
      " du",
      "ties"
    ],
    [
      " g",
      "ra"
    ],
    [
      "4",
      "4"
    ],
    [
      "m",
      "ed"
    ],
    [
      "s",
      "ure"
    ],
    [
      " n",
      "ecess"
    ],
    [
      " su",
      "it"
    ],
    [
      " ",
      "9"
    ],
    [
      " p",
      "rac"
    ],
    [
      " win",
      "ding"
    ],
    [
      " el",
      "ect"
    ],
    [
      "al",
      "s"
    ],
    [
      " a",
      "r"
    ],
    [
      " appro",
      "ved"
    ],
    [
      " machin",
      "ery"
    ],
    [
      " d",
      "es"
    ],
    [
      " fir",
      "st"
    ],
    [
      " de",
      "g"
    ],
    [
      "t",
      "al"
    ],
    [
      " sur",
      "vey"
    ],
    [
      " p",
      "ar"
    ],
    [
      " tr",
      "ans"
    ],
    [
      " engineer",
      "ing"
    ],
    [
      " v",
      "al"
    ],
    [
      " g",
      "az"
    ],
    [
      " gaz",
      "et"
    ],
    [
      " la",
      "mp"
    ],
    [
      " refer",
      "red"
    ],
    [
      " ro",
      "pe"
    ],
    [
      " exp",
      "los"
    ],
    [
      " be",
      "ing"
    ],
    [
      " con",
      "vey"
    ],
    [
      " necess",
      "ary"
    ],
    [
      " ",
      "entr"
    ],
    [
      " m",
      "o"
    ],
    [
      " gazet",
      "te"
    ],
    [
      " 1",
      "0"
    ],
    [
      "in",
      "ing"
    ],
    [
      "k",
      "ing"
    ],
    [
      "d",
      "ic"
    ],
    [
      "ul",
      "e"
    ],
    [
      " w",
      "ater"
    ],
    [
      "ag",
      "ed"
    ],
    [
      " e",
      "ach"
    ],
    [
      " co",
      "al"
    ],
    [
      "ment",
      "s"
    ],
    [
      " le",
      "ast"
    ],
    [
      " su",
      "per"
    ],
    [
      "ec",
      "ted"
    ],
    [
      "ate",
      "ly"
    ],
    [
      "p",
      "on"
    ],
    [
      " en",
      "d"
    ],
    [
      "m",
      "iss"
    ],
    [
      "on",
      "e"
    ],
    [
      " qu",
      "an"
    ],
    [
      "an",
      "c"
    ],
    [
      " 1",
      "2"
    ],
    [
      "s",
      "s"
    ],
    [
      "f",
      "ace"
    ],
    [
      "fici",
      "ent"
    ],
    [
      " ",
      "8"
    ],
    [
      "at",
      "es"
    ],
    [
      " ef",
      "f"
    ],
    [
      ",",
      ","
    ],
    [
      "if",
      "t"
    ],
    [
      " pro",
      "per"
    ],
    [
      "3",
      "3"
    ],
    [
      "5",
      "5"
    ],
    [
      "mit",
      "ted"
    ],
    [
      " dire",
      "ct"
    ],
    [
      " s",
      "y"
    ],
    [
      "all",
      "y"
    ],
    [
      "o",
      "k"
    ],
    [
      " suit",
      "able"
    ],
    [
      "l",
      "f"
    ],
    [
      " d",
      "ated"
    ],
    [
      " sur",
      "face"
    ],
    [
      " f",
      "e"
    ],
    [
      "ang",
      "er"
    ],
    [
      "on",
      "g"
    ],
    [
      "at",
      "ure"
    ],
    [
      "cri",
      "b"
    ],
    [
      " re",
      "t"
    ],
    [
      "as",
      "on"
    ],
    [
      "lo",
      "m"
    ],
    [
      "7",
      "7"
    ],
    [
      " employ",
      "ment"
    ],
    [
      " g",
      "round"
    ],
    [
      " in",
      "form"
    ],
    [
      "en",
      "s"
    ],
    [
      "tit",
      "y"
    ],
    [
      " pres",
      "crib"
    ],
    [
      " pre",
      "c"
    ],
    [
      "o",
      "ut"
    ],
    [
      "in",
      "ary"
    ],
    [
      ")",
      "]"
    ],
    [
      " char",
      "ge"
    ],
    [
      " le",
      "a"
    ],
    [
      " d",
      "ip"
    ],
    [
      "ul",
      "d"
    ],
    [
      " ext",
      "ra"
    ],
    [
      "po",
      "s"
    ],
    [
      "st",
      "em"
    ],
    [
      "er",
      "m"
    ],
    [
      " ",
      "up"
    ],
    [
      " in",
      "to"
    ],
    [
      " sy",
      "stem"
    ],
    [
      " author",
      "ised"
    ],
    [
      " co",
      "p"
    ],
    [
      "ing",
      "s"
    ],
    [
      " ta",
      "ken"
    ],
    [
      "al",
      "e"
    ],
    [
      " exp",
      "l"
    ],
    [
      " cl",
      "ause"
    ],
    [
      "p",
      "ar"
    ],
    [
      " o",
      "re"
    ],
    [
      "un",
      "t"
    ],
    [
      " or",
      "d"
    ],
    [
      " l",
      "i"
    ],
    [
      "lo",
      "g"
    ],
    [
      " re",
      "ason"
    ],
    [
      " quan",
      "tity"
    ],
    [
      " lic",
      "ence"
    ],
    [
      "it",
      "e"
    ],
    [
      " co",
      "ur"
    ],
    [
      "er",
      "v"
    ],
    [
      " sh",
      "ift"
    ],
    [
      " rul",
      "e"
    ],
    [
      "id",
      "ent"
    ],
    [
      " dip",
      "lom"
    ],
    [
      "(",
      "("
    ],
    [
      "p",
      "art"
    ],
    [
      " ret",
      "urn"
    ],
    [
      " offic",
      "er"
    ],
    [
      " comp",
      "l"
    ],
    [
      "id",
      "e"
    ],
    [
      "i",
      "z"
    ],
    [
      "a",
      "ir"
    ],
    [
      "ran",
      "ted"
    ],
    [
      " g",
      "iv"
    ],
    [
      "n",
      "er"
    ],
    [
      " inst",
      "all"
    ],
    [
      "ul",
      "t"
    ],
    [
      " g",
      "ranted"
    ],
    [
      " c",
      "le"
    ],
    [
      " bo",
      "ok"
    ],
    [
      " author",
      "ity"
    ],
    [
      "a",
      "ct"
    ],
    [
      " indi",
      "an"
    ],
    [
      " at",
      "t"
    ],
    [
      " ha",
      "ul"
    ],
    [
      "f",
      "ied"
    ],
    [
      " cl",
      "ass"
    ],
    [
      " carr",
      "y"
    ],
    [
      " a",
      "c"
    ],
    [
      " prev",
      "ent"
    ],
    [
      " 1",
      "5"
    ],
    [
      "ess",
      "ion"
    ],
    [
      " d",
      "ec"
    ],
    [
      "a",
      "re"
    ],
    [
      " hol",
      "der"
    ],
    [
      "st",
      "r"
    ],
    [
      " en",
      "sure"
    ],
    [
      "or",
      "ation"
    ],
    [
      " t",
      "y"
    ],
    [
      " par",
      "tic"
    ],
    [
      "1",
      "9"
    ],
    [
      "6",
      "6"
    ],
    [
      " year",
      "s"
    ],
    [
      " partic",
      "ular"
    ],
    [
      " sub",
      "s"
    ],
    [
      " to",
      "tal"
    ],
    [
      " of",
      "f"
    ],
    [
      " ventil",
      "ation"
    ],
    [
      " t",
      "ub"
    ],
    [
      "o",
      "log"
    ],
    [
      " acc",
      "ident"
    ],
    [
      "1",
      "2"
    ],
    [
      " spec",
      "ial"
    ],
    [
      "k",
      "s"
    ],
    [
      "iv",
      "es"
    ],
    [
      "on",
      "d"
    ],
    [
      " prac",
      "tic"
    ],
    [
      " sho",
      "uld"
    ],
    [
      " re",
      "ce"
    ],
    [
      "w",
      "ith"
    ],
    [
      " g",
      "ive"
    ],
    [
      " section",
      "s"
    ],
    [
      " i",
      "mp"
    ],
    [
      "ro",
      "ugh"
    ],
    [
      " o",
      "cc"
    ],
    [
      " pl",
      "ans"
    ],
    [
      " diplom",
      "a"
    ],
    [
      "de",
      "qu"
    ],
    [
      " al",
      "low"
    ],
    [
      " met",
      "res"
    ],
    [
      " :",
      "-"
    ],
    [
      " re",
      "n"
    ],
    [
      " se",
      "am"
    ],
    [
      "miss",
      "ion"
    ],
    [
      "as",
      "es"
    ],
    [
      " ",
      "*"
    ],
    [
      " road",
      "way"
    ],
    [
      "a",
      "red"
    ],
    [
      " man",
      "ner"
    ],
    [
      " prescrib",
      "ed"
    ],
    [
      "ail",
      "s"
    ],
    [
      " pro",
      "t"
    ],
    [
      " contro",
      "ll"
    ],
    [
      " 3",
      "0"
    ],
    [
      " ",
      "im"
    ],
    [
      "med",
      "i"
    ],
    [
      " op",
      "en"
    ],
    [
      " d",
      "anger"
    ],
    [
      "an",
      "e"
    ],
    [
      " lo",
      "c"
    ],
    [
      "h",
      "o"
    ],
    [
      "in",
      "ed"
    ],
    [
      " deg",
      "ree"
    ],
    [
      " pl",
      "ac"
    ],
    [
      "ord",
      "inary"
    ],
    [
      " im",
      "medi"
    ],
    [
      " pro",
      "duc"
    ],
    [
      " sc",
      "hed"
    ],
    [
      " convey",
      "ance"
    ],
    [
      " sho",
      "w"
    ],
    [
      " qu",
      "al"
    ],
    [
      " su",
      "f"
    ],
    [
      " carr",
      "ied"
    ],
    [
      " extra",
      "ordinary"
    ],
    [
      " a",
      "dequ"
    ],
    [
      " met",
      "ers"
    ],
    [
      " inclu",
      "ding"
    ],
    [
      "is",
      "ter"
    ],
    [
      "lo",
      "p"
    ],
    [
      " c",
      "age"
    ],
    [
      " gra",
      "de"
    ],
    [
      " hkk",
      "x"
    ],
    [
      "k",
      "j"
    ],
    [
      " explos",
      "ives"
    ],
    [
      "s",
      "u"
    ],
    [
      " 1",
      "11"
    ],
    [
      " hkk",
      "j"
    ],
    [
      " hkkj",
      "r"
    ],
    [
      " d",
      "k"
    ],
    [
      " j",
      "k"
    ],
    [
      " jk",
      "ti"
    ],
    [
      " v",
      "l"
    ],
    [
      " vl",
      "k"
    ],
    [
      " 2",
      "5"
    ],
    [
      " equ",
      "ip"
    ],
    [
      "ech",
      "n"
    ],
    [
      ".",
      "-"
    ],
    [
      " ass",
      "ist"
    ],
    [
      " dis",
      "c"
    ],
    [
      "in",
      "u"
    ],
    [
      "a",
      "v"
    ],
    [
      " on",
      "ly"
    ],
    [
      " p",
      "ass"
    ],
    [
      " it",
      "s"
    ],
    [
      "e",
      "en"
    ],
    [
      "enc",
      "y"
    ],
    [
      " p",
      "ay"
    ],
    [
      " ",
      "ent"
    ],
    [
      " haul",
      "age"
    ],
    [
      " ,",
      ";"
    ],
    [
      " sched",
      "ule"
    ],
    [
      " equip",
      "ment"
    ],
    [
      " ag",
      "ain"
    ],
    [
      "tit",
      "ut"
    ],
    [
      "w",
      "ise"
    ],
    [
      " th",
      "ree"
    ],
    [
      " month",
      "s"
    ],
    [
      " f",
      "ol"
    ],
    [
      " g",
      "e"
    ],
    [
      " ma",
      "ke"
    ],
    [
      " qual",
      "if"
    ],
    [
      " reg",
      "ister"
    ],
    [
      " ",
      "{"
    ],
    [
      " f",
      "in"
    ],
    [
      "al",
      "f"
    ],
    [
      "i",
      "ties"
    ],
    [
      "ag",
      "es"
    ],
    [
      " expl",
      "oration"
    ],
    [
      "re",
      "n"
    ],
    [
      " me",
      "as"
    ],
    [
      " inform",
      "ation"
    ],
    [
      " f",
      "o"
    ],
    [
      "!",
      "!"
    ],
    [
      " fol",
      "low"
    ],
    [
      "anc",
      "es"
    ],
    [
      "e",
      "mp"
    ],
    [
      "t",
      "w"
    ],
    [
      " ord",
      "ers"
    ],
    [
      " in",
      "t"
    ],
    [
      "ve",
      "lop"
    ],
    [
      " po",
      "wer"
    ],
    [
      " ha",
      "ving"
    ],
    [
      " f",
      "it"
    ],
    [
      " controll",
      "er"
    ],
    [
      " h",
      "o"
    ],
    [
      "ti",
      "m"
    ],
    [
      "ic",
      "ations"
    ],
    [
      " in",
      "spec"
    ],
    [
      "1",
      "0"
    ],
    [
      " 1",
      "8"
    ],
    [
      " m",
      "at"
    ],
    [
      " oper",
      "ation"
    ],
    [
      " res",
      "pon"
    ],
    [
      " with",
      "out"
    ],
    [
      " ",
      "\\"
    ],
    [
      " ex",
      "c"
    ],
    [
      "e",
      "ver"
    ],
    [
      " t",
      "echn"
    ],
    [
      " exceed",
      "ing"
    ],
    [
      " giv",
      "en"
    ],
    [
      " val",
      "ue"
    ],
    [
      "enc",
      "ast"
    ],
    [
      "at",
      "us"
    ],
    [
      " cont",
      "ain"
    ],
    [
      " lea",
      "ve"
    ],
    [
      " suf",
      "ficient"
    ],
    [
      "ech",
      "an"
    ],
    [
      " con",
      "n"
    ],
    [
      "an",
      "ding"
    ],
    [
      "our",
      "s"
    ],
    [
      "ist",
      "r"
    ],
    [
      " adequ",
      "ate"
    ],
    [
      " op",
      "encast"
    ],
    [
      " be",
      "h"
    ],
    [
      " sto",
      "pp"
    ],
    [
      " c",
      "los"
    ],
    [
      " me",
      "m"
    ],
    [
      "i",
      "b"
    ],
    [
      " ta",
      "ke"
    ],
    [
      " re",
      "st"
    ],
    [
      " again",
      "st"
    ],
    [
      " 1",
      "4"
    ],
    [
      " de",
      "f"
    ],
    [
      " ab",
      "and"
    ],
    [
      " m",
      "echan"
    ],
    [
      "si",
      "ble"
    ],
    [
      " cont",
      "ra"
    ],
    [
      " b",
      "l"
    ],
    [
      " un",
      "til"
    ],
    [
      " ent",
      "er"
    ],
    [
      " ",
      "00"
    ],
    [
      " aband",
      "on"
    ],
    [
      " assist",
      "ant"
    ],
    [
      " super",
      "v"
    ],
    [
      "mp",
      "l"
    ],
    [
      "i",
      "le"
    ],
    [
      "n",
      "ed"
    ],
    [
      " con",
      "str"
    ],
    [
      "p",
      "s"
    ],
    [
      "is",
      "hed"
    ],
    [
      " on",
      "ce"
    ],
    [
      " b",
      "ure"
    ],
    [
      " bure",
      "au"
    ],
    [
      " s",
      "aid"
    ],
    [
      " ty",
      "pe"
    ],
    [
      " immedi",
      "ately"
    ],
    [
      " in",
      "f"
    ],
    [
      " w",
      "e"
    ],
    [
      "ir",
      "y"
    ],
    [
      "on",
      "t"
    ],
    [
      "u",
      "res"
    ],
    [
      "s",
      "p"
    ],
    [
      " app",
      "ar"
    ],
    [
      " appar",
      "atus"
    ],
    [
      "end",
      "ed"
    ],
    [
      " f",
      "ix"
    ],
    [
      "t",
      "ing"
    ],
    [
      "ign",
      "ed"
    ],
    [
      " ge",
      "olog"
    ],
    [
      "velop",
      "ment"
    ],
    [
      " n",
      "e"
    ],
    [
      " follow",
      "ing"
    ],
    [
      " other",
      "wise"
    ],
    [
      " contro",
      "l"
    ],
    [
[...]
